<unk>	0
<s>	0
</s>	0
.	-3.27447
,	-3.49894
▁	-4.10884
▁a	-4.19403
a	-4.25726
▁w	-4.31915
▁so	-4.58845
e	-4.6264
▁na	-4.69916
▁z	-4.73197
u	-4.81908
m	-4.9285
▁je	-4.99133
je	-5.0387
i	-5.08035
▁za	-5.11508
ch	-5.16729
s	-5.18408
n	-5.3684
ć	-5.42888
▁do	-5.43528
y	-5.44099
nje	-5.4717
▁zo	-5.56382
ow	-5.56606
en	-5.56938
t	-5.56976
li	-5.58558
▁wo	-5.60903
▁tež	-5.69338
▁po	-5.7165
ł	-5.71681
r	-5.73087
▁k	-5.75741
ja	-5.80342
na	-5.81578
j	-5.83994
-	-5.85698
▁W	-5.89092
k	-5.90382
ne	-5.92101
om	-5.95574
ho	-5.9589
▁to	-5.98263
▁(	-5.99549
l	-5.99979
▁der	-6.00621
ny	-6.00797
chu	-6.01214
w	-6.01379
▁bě	-6.01822
ej	-6.04003
▁su	-6.11413
:	-6.11917
▁die	-6.13079
▁wot	-6.14648
ni	-6.1481
▁ze	-6.1636
ka	-6.17278
▁und	-6.18125
z	-6.18355
▁při	-6.2356
er	-6.24525
še	-6.25819
o	-6.25861
▁„	-6.28317
mi	-6.31283
le	-6.34124
š	-6.43141
ła	-6.43437
▁in	-6.43925
d	-6.44219
ach	-6.44767
▁Na	-6.45763
)	-6.47245
b	-6.48227
▁jako	-6.53796
ž	-6.54425
▁kaž	-6.55142
▁pak	-6.55187
ło	-6.59464
▁we	-6.60132
nu	-6.61467
▁Z	-6.63204
my	-6.63523
▁sej	-6.64096
st	-6.64603
nja	-6.67046
▁A	-6.67392
▁ma	-6.67526
▁-	-6.67639
▁Po	-6.68447
će	-6.6863
▁hač	-6.68848
▁tym	-6.73799
la	-6.74764
wa	-6.75682
▁S	-6.76087
▁K	-6.77057
ta	-6.77112
▁jeho	-6.77566
▁hižo	-6.82276
nju	-6.83149
▁hišće	-6.83485
te	-6.83864
▁tak	-6.84287
nych	-6.84454
?	-6.86965
ki	-6.87797
▁abo	-6.90908
ku	-6.91761
ce	-6.91804
cy	-6.95548
/	-6.9666
▁den	-6.97724
▁nje	-6.98769
ski	-7.00396
▁19	-7.01471
▁před	-7.02541
▁pře	-7.03427
owa	-7.03504
ami	-7.04131
no	-7.04492
ju	-7.05107
in	-7.05477
nym	-7.06362
h	-7.06988
ra	-7.06997
p	-7.07214
da	-7.08446
▁mjez	-7.0858
▁ist	-7.09437
eho	-7.09915
f	-7.10545
▁by	-7.11657
g	-7.12621
▁ale	-7.13033
es	-7.13566
▁–	-7.13923
).	-7.15167
▁pod	-7.1573
▁Za	-7.17329
''	-7.17358
▁wón	-7.17746
“	-7.1785
wi	-7.18213
am	-7.18419
c	-7.1857
▁des	-7.18774
▁jenož	-7.19051
▁P	-7.19068
▁“	-7.19196
nej	-7.20272
wo	-7.20626
neho	-7.21137
uje	-7.21144
ym	-7.21235
mu	-7.21621
▁"	-7.21901
S	-7.21911
▁lěta	-7.22626
▁das	-7.22653
▁,,	-7.23754
▁M	-7.23852
skeho	-7.24137
▁Die	-7.2437
ska	-7.24574
▁s	-7.25983
▁běchu	-7.26362
"	-7.27138
▁njeje	-7.27473
▁kiž	-7.27505
ko	-7.28336
▁To	-7.28479
jo	-7.28633
ty	-7.29359
ü	-7.29542
ten	-7.29927
▁kotrež	-7.29995
ować	-7.30027
▁dr	-7.30467
sa	-7.30881
dźe	-7.31844
▁mit	-7.31927
ä	-7.32653
ske	-7.33293
▁lět	-7.33383
▁ge	-7.33747
▁serbskich	-7.34773
▁tam	-7.35695
▁für	-7.36067
za	-7.3616
▁bu	-7.3685
▁zu	-7.37694
▁swoje	-7.39055
”	-7.39539
ung	-7.39881
▁wob	-7.39988
▁kotryž	-7.40384
▁ein	-7.41286
wje	-7.41712
!	-7.4182
▁B	-7.42451
kow	-7.44064
▁pola	-7.44369
▁Wo	-7.44396
▁auf	-7.44482
▁er	-7.44532
▁be	-7.44962
ych	-7.4511
skim	-7.45882
▁Serbow	-7.46617
▁dale	-7.46816
▁zaso	-7.4831
▁D	-7.48464
skej	-7.49733
de	-7.50182
ó	-7.50394
▁sich	-7.51316
▁tu	-7.52248
ri	-7.52732
▁re	-7.53181
▁přez	-7.53241
el	-7.53247
▁Při	-7.53621
▁im	-7.5375
tu	-7.54017
ě	-7.54345
al	-7.54729
▁nicht	-7.54887
po	-7.55176
sta	-7.55845
K	-7.55985
ter	-7.56296
▁da	-7.56804
▁''	-7.56947
▁H	-7.57121
ru	-7.57215
▁dem	-7.59055
▁dźensa	-7.59113
skeje	-7.59117
eje	-7.59259
ro	-7.59292
ha	-7.60287
▁čas	-7.60402
owaše	-7.60707
ba	-7.61158
ge	-7.6119
ša	-7.62063
▁Jan	-7.6253
lu	-7.62947
chmy	-7.63357
▁hodź	-7.63401
▁toho	-7.63513
▁Ma	-7.64508
▁jara	-7.64752
▁von	-7.64843
▁swój	-7.65383
aj	-7.65679
uja	-7.65744
▁wjele	-7.66883
▁dźěći	-7.67645
ze	-7.67657
▁hdyž	-7.67739
▁serbske	-7.68249
ći	-7.68394
W	-7.68783
sch	-7.68897
▁sobu	-7.69002
▁Łužicy	-7.69202
stwo	-7.6925
▁roz	-7.69715
ich	-7.6987
wu	-7.70618
im	-7.71201
ec	-7.71487
▁ver	-7.71797
ca	-7.72343
▁Do	-7.72563
dy	-7.7307
▁wosebje	-7.73413
▁mi	-7.73453
▁sta	-7.7353
▁eine	-7.74377
ń	-7.74845
B	-7.75162
▁swojim	-7.75226
▁18	-7.75252
▁rěč	-7.75574
▁J	-7.7568
ća	-7.75685
č	-7.7617
ić	-7.76538
▁dźěła	-7.77084
pa	-7.77712
▁sie	-7.78093
or	-7.78418
rje	-7.7866
▁aus	-7.78712
A	-7.79257
▁kotraž	-7.79518
▁E	-7.79638
sku	-7.79961
ö	-7.80017
M	-7.80164
du	-7.80227
▁Tež	-7.80312
by	-7.80373
zi	-7.80401
▁jich	-7.80868
▁G	-7.80875
bu	-7.81114
▁ko	-7.81695
nik	-7.81696
▁T	-7.81895
▁hat	-7.82103
lo	-7.82154
stwa	-7.82249
▁te	-7.82474
gen	-7.8272
dźa	-7.82895
▁samo	-7.82929
SN	-7.8306
▁h	-7.83082
to	-7.83337
▁Š	-7.83545
▁I	-7.83682
owanje	-7.83853
▁Das	-7.84321
dźi	-7.84333
▁raz	-7.84623
▁nas	-7.84947
▁R	-7.8521
now	-7.85363
skich	-7.85892
▁Be	-7.86044
ši	-7.86065
▁lěće	-7.86067
ar	-7.86726
▁nam	-7.86751
▁dźěło	-7.87231
▁być	-7.87449
▁dnja	-7.87595
▁serbskeje	-7.87705
▁nětko	-7.87795
▁wjace	-7.88047
▁Der	-7.88103
▁kon	-7.89126
neje	-7.89258
▁Ko	-7.89295
ró	-7.89425
▁O	-7.89519
I	-7.8965
▁potom	-7.89686
▁štož	-7.90131
▁dokelž	-7.90175
owy	-7.90234
▁Tak	-7.9029
iz	-7.90451
▁an	-7.90463
▁F	-7.9055
▁bjez	-7.90611
▁Je	-7.91138
ke	-7.91661
5	-7.91662
D	-7.91781
▁Wón	-7.92178
“,	-7.92506
▁serbskeho	-7.92637
at	-7.93029
us	-7.9315
▁puć	-7.93263
di	-7.93705
se	-7.93867
njow	-7.93895
▁drje	-7.94403
tej	-7.94781
▁praji	-7.94826
ry	-7.95195
▁tutym	-7.95303
▁Er	-7.95352
▁1	-7.95424
▁tomu	-7.95684
▁wě	-7.95764
ur	-7.96253
is	-7.96574
▁druhim	-7.97211
do	-7.97268
▁L	-7.97381
▁běše	-7.97501
zy	-7.97819
cu	-7.97968
▁wir	-7.98301
či	-7.98343
▁š	-7.98595
re	-7.98664
▁budźe	-7.98712
den	-7.98817
hr	-7.98866
bi	-7.98902
▁maja	-7.98914
▁serbski	-7.98999
▁In	-7.99391
ci	-7.99749
zu	-7.99827
T	-7.99876
▁farar	-8.00057
▁ludźi	-8.00867
nosć	-8.01278
▁du	-8.01752
ža	-8.01781
dź	-8.01908
▁se	-8.02139
;	-8.02307
če	-8.02859
be	-8.02947
rjo	-8.03252
▁dass	-8.03305
▁hdźež	-8.03678
rě	-8.03684
▁sind	-8.03908
hn	-8.04228
▁Sie	-8.04518
▁ja	-8.04554
▁auch	-8.04804
▁cyrkwi	-8.05157
▁swoju	-8.05177
▁přećiwo	-8.05261
▁N	-8.05747
▁sam	-8.05956
–	-8.06241
▁ju	-8.06431
▁kak	-8.06525
si	-8.06692
▁So	-8.06857
jow	-8.06923
▁wona	-8.07124
▁kotřiž	-8.07246
P	-8.07557
sy	-8.07567
▁Sch	-8.07649
▁něšto	-8.07732
▁Budyšinje	-8.082
ber	-8.08442
▁Wot	-8.08474
njom	-8.08636
▁nic	-8.08826
tow	-8.08886
▁přikład	-8.09031
ck	-8.09103
bje	-8.09442
▁ich	-8.09607
3	-8.09679
ig	-8.09772
bo	-8.09979
▁měješe	-8.10114
▁de	-8.1014
▁smy	-8.1033
▁werden	-8.10501
▁wšak	-8.10753
▁spěwa	-8.11546
▁sym	-8.11845
R	-8.1192
nicy	-8.12019
owe	-8.12093
it	-8.12653
▁war	-8.12695
su	-8.12946
L	-8.12995
▁We	-8.13224
tra	-8.13231
▁jemu	-8.13266
il	-8.13333
▁es	-8.13982
▁Ge	-8.14024
▁swojich	-8.14279
um	-8.14405
▁dźeń	-8.1466
mo	-8.15277
▁C	-8.15402
2	-8.15738
sko	-8.15993
▁runje	-8.16156
.“	-8.16272
▁tola	-8.16583
he	-8.16691
▁jeje	-8.16701
▁20	-8.16702
ina	-8.16959
wě	-8.17036
▁poł	-8.17211
hl	-8.17233
▁p	-8.17355
▁über	-8.17386
▁Ale	-8.17612
▁dla	-8.17774
ik	-8.18098
▁Ch	-8.18446
▁3	-8.18626
▁l	-8.18635
▁pro	-8.18667
▁An	-8.18848
▁eurow	-8.19264
▁swojeho	-8.19481
sce	-8.19837
▁prěni	-8.20106
▁něhdźe	-8.20106
▁Jako	-8.20272
▁lud	-8.20348
▁tute	-8.20358
▁Domowiny	-8.20381
▁Re	-8.20456
),	-8.21035
▁2	-8.21099
▁haben	-8.21156
rjow	-8.21174
▁lěto	-8.2147
▁biskop	-8.21829
▁swojej	-8.22118
ojo	-8.22329
ol	-8.22503
▁wčera	-8.22797
▁chce	-8.2294
et	-8.23129
▁ru	-8.23501
▁dotal	-8.23619
▁derje	-8.24065
owym	-8.241
▁serbskej	-8.24443
▁dźě	-8.24859
wy	-8.24953
owachu	-8.24979
we	-8.25128
▁nim	-8.25234
▁vor	-8.25266
ut	-8.25545
▁als	-8.25591
pi	-8.25704
▁nad	-8.25976
▁wječor	-8.26033
▁přeco	-8.26066
ča	-8.2649
▁pisa	-8.2698
▁dom	-8.27163
lě	-8.2723
že	-8.27405
▁času	-8.27819
▁naj	-8.28137
▁šule	-8.28471
łu	-8.2857
▁Budyšin	-8.28796
▁fa	-8.29057
▁sy	-8.29059
▁cyrkwje	-8.29194
osć	-8.29531
▁zajim	-8.29578
ler	-8.29766
štaj	-8.2991
łoj	-8.3037
▁Ha	-8.30372
ti	-8.30569
▁towarstwa	-8.30716
oweho	-8.3077
▁Ze	-8.30771
ern	-8.30774
▁Nje	-8.3084
tor	-8.31484
▁lětach	-8.31498
▁rady	-8.31556
kt	-8.31999
oweje	-8.32173
on	-8.32224
▁móže	-8.32252
▁dalše	-8.3238
▁ha	-8.32782
▁znowa	-8.32784
stwje	-8.33052
▁bychu	-8.33133
str	-8.33607
O	-8.33893
“.	-8.34225
mě	-8.34246
▁Domowina	-8.34585
▁Ver	-8.34632
jom	-8.34748
▁žiwjenje	-8.34986
ist	-8.35681
▁Ich	-8.36039
šu	-8.36078
▁mo	-8.36137
ste	-8.36287
pje	-8.36656
ner	-8.36745
▁koncert	-8.36801
▁nowe	-8.36829
▁čita	-8.36924
▁Sta	-8.36953
nk	-8.37269
so	-8.37457
▁wird	-8.3753
pis	-8.37681
▁Mi	-8.37885
▁rěči	-8.37959
E	-8.38038
der	-8.38309
▁1.	-8.38312
owych	-8.3837
▁pokaza	-8.38548
▁žiwjenja	-8.38569
▁000	-8.38743
ben	-8.3914
ował	-8.39218
owej	-8.39331
owanja	-8.39363
▁njebě	-8.39739
▁4	-8.39916
▁stajnje	-8.40224
scy	-8.40342
▁Da	-8.40344
00	-8.40345
rja	-8.40571
▁Serbskeho	-8.40603
▁Bě	-8.40691
1	-8.40743
go	-8.40819
ll	-8.40875
▁mje	-8.40876
lich	-8.4096
▁Serbja	-8.41123
iju	-8.4117
▁chór	-8.4176
7	-8.41804
▁sorbischen	-8.41898
gi	-8.42211
sto	-8.42338
▁tohorunja	-8.42354
▁wšěch	-8.42682
▁bóle	-8.4276
▁um	-8.43053
▁rjad	-8.43105
▁njedźelu	-8.434
▁rěče	-8.43506
ob	-8.43513
0	-8.43522
pra	-8.43652
Z	-8.43767
▁Tu	-8.43952
▁Me	-8.43996
▁cyle	-8.44127
nt	-8.44168
▁tři	-8.44337
omaj	-8.44601
nc	-8.44635
nd	-8.44963
taj	-8.45173
C	-8.45282
oł	-8.45367
ga	-8.45817
▁wotmě	-8.45824
▁Le	-8.46038
▁serbskim	-8.46241
▁program	-8.46353
▁kóždy	-8.4652
▁str	-8.46873
▁pi	-8.47097
▁kotrymž	-8.47136
▁dósta	-8.47168
▁tajke	-8.47285
▁nadawk	-8.47793
▁hor	-8.478
tz	-8.48149
▁nimo	-8.48171
tych	-8.48714
N	-8.48822
ing	-8.48928
▁rjekny	-8.48973
▁jim	-8.49167
▁sa	-8.49421
▁Jana	-8.49804
ak	-8.49828
▁městno	-8.50051
▁kraj	-8.50143
▁Ro	-8.50403
▁Pa	-8.50593
▁stej	-8.5064
▁pozdźišo	-8.50723
▁Wir	-8.51117
▁wobraz	-8.51234
▁dźěl	-8.51249
▁lětami	-8.51453
chen	-8.51578
njo	-8.51689
▁Li	-8.51836
źe	-8.52199
4	-8.52329
nika	-8.52422
▁nich	-8.52471
▁Nimo	-8.52485
▁Ein	-8.52582
▁wjes	-8.5264
▁Serbski	-8.52787
▁swět	-8.52815
«	-8.52996
cija	-8.53093
▁wšěm	-8.53328
▁Ka	-8.53491
man	-8.53671
▁nimale	-8.53886
sti	-8.541
▁pra	-8.54142
▁časa	-8.54355
▁nach	-8.54617
ant	-8.54645
▁njej	-8.54774
▁Ju	-8.54857
▁wužiwa	-8.54896
▁Bóh	-8.55029
▁lětsa	-8.55278
▁Jurij	-8.55421
ija	-8.55609
▁Br	-8.55799
ic	-8.56307
▁serbsku	-8.56621
▁kónc	-8.56681
▁Tam	-8.56779
▁jedna	-8.57173
▁V	-8.57296
fe	-8.57445
sć	-8.57553
▁narod	-8.57694
▁staj	-8.57705
▁zum	-8.57726
▁předewšěm	-8.58107
▁spěw	-8.58263
▁bo	-8.58426
nen	-8.58705
▁tutón	-8.58714
▁Němskej	-8.58946
▁Mo	-8.59125
ěr	-8.59308
▁ba	-8.59573
▁cyrkej	-8.5958
▁wězo	-8.59615
▁g	-8.59627
▁Ja	-8.59918
▁tra	-8.59955
▁sch	-8.60036
▁Hdyž	-8.60339
wěr	-8.60659
▁me	-8.6077
owanju	-8.60903
30	-8.61008
▁někotre	-8.6102
▁wučer	-8.61069
▁rěka	-8.61202
▁města	-8.61325
▁dźak	-8.61534
▁Pra	-8.61759
▁trjeba	-8.61761
šo	-8.61785
▁što	-8.61812
ungen	-8.61849
▁zastup	-8.6194
ad	-8.61998
sće	-8.62043
▁přećel	-8.62069
▁dyrbi	-8.62248
▁Serb	-8.6234
▁15	-8.62474
▁tehdy	-8.62693
ie	-8.6283
▁wašnje	-8.62934
▁noch	-8.63117
H	-8.63192
6	-8.63398
sten	-8.63502
ger	-8.63533
▁Ra	-8.63713
▁sobotu	-8.63815
▁druhich	-8.63935
nymi	-8.64021
▁křiž	-8.64239
ał	-8.6434
war	-8.6437
▁hra	-8.64444
tiw	-8.6445
▁li	-8.6455
▁pjeć	-8.64689
dpa	-8.64819
▁přihot	-8.64831
sk	-8.649
zo	-8.65062
▁Serbach	-8.65435
▁tutej	-8.6546
fer	-8.6549
▁wopyta	-8.65497
▁d	-8.65742
▁Se	-8.65776
od	-8.65802
x	-8.65929
▁wsy	-8.6598
▁jedno	-8.66122
▁f	-8.66154
▁Mar	-8.66187
▁serbsce	-8.66474
▁wšo	-8.66499
▁druhe	-8.66615
ś	-8.66625
▁sorbische	-8.66662
▁zdobom	-8.66737
▁wuznam	-8.67024
ert	-8.6711
▁ž	-8.67141
štej	-8.67146
▁zarjad	-8.6721
▁nasta	-8.67223
▁zhromadnje	-8.67621
bě	-8.67685
len	-8.67725
▁ludźo	-8.6773
▁njejsu	-8.67826
▁Dr	-8.68102
▁kotruž	-8.68176
cije	-8.6824
▁plan	-8.68349
lětny	-8.68419
▁bei	-8.68438
▁mu	-8.68781
▁wie	-8.68895
▁skupina	-8.68924
▁Sp	-8.69017
▁Aus	-8.69214
▁tuž	-8.69282
nske	-8.69284
▁Bu	-8.69318
▁srjedź	-8.69508
bl	-8.69785
owali	-8.70039
kotrejž	-8.70041
▁La	-8.70079
▁mě	-8.7008
hi	-8.70143
▁meje	-8.70174
▁wuhotowa	-8.70261
maj	-8.70422
9	-8.70482
pro	-8.70647
▁poda	-8.70752
ón	-8.7086
▁předstaji	-8.70907
▁dar	-8.70911
gt	-8.71172
sći	-8.71416
▁17	-8.71511
▁doma	-8.71693
▁pomoc	-8.7186
▁mjeńšin	-8.71915
rt	-8.71929
▁pa	-8.72027
▁studij	-8.72059
iji	-8.72117
▁wone	-8.7232
ita	-8.72395
cow	-8.72424
▁einen	-8.72525
▁serbska	-8.72538
▁zur	-8.72597
▁dwě	-8.72644
▁płaći	-8.72667
br	-8.72806
ß	-8.72892
▁5	-8.72917
▁kultury	-8.72919
mann	-8.73019
owane	-8.73171
▁uns	-8.73209
emi	-8.7323
▁Wona	-8.73287
▁Hižo	-8.73325
▁předsyda	-8.73461
▁unter	-8.7356
▁Wob	-8.73572
▁steji	-8.73647
rěč	-8.7369
▁dosć	-8.73735
kom	-8.73764
nski	-8.73964
ster	-8.7397
ssen	-8.74122
and	-8.74146
ff	-8.74218
▁jedyn	-8.7422
▁Ta	-8.74277
▁wšitcy	-8.74327
ir	-8.74384
em	-8.74399
▁namaka	-8.74456
▁wulki	-8.74666
▁Pře	-8.7473
▁stat	-8.74783
▁zaběra	-8.74863
▁žada	-8.74927
▁mjenje	-8.7506
▁Serbskim	-8.75264
ul	-8.75295
▁měr	-8.75475
olog	-8.75484
▁króć	-8.75584
▁Jězus	-8.75619
▁II	-8.75735
▁2.	-8.75744
G	-8.75763
ali	-8.75995
▁Bo	-8.76014
▁awtor	-8.76024
▁měli	-8.76048
sen	-8.76563
▁my	-8.76597
čka	-8.76603
19	-8.76719
▁dobre	-8.76722
nka	-8.76731
igen	-8.76811
J	-8.77004
▁Fr	-8.7717
hu	-8.77198
▁njeho	-8.77359
▁oder	-8.77407
▁Kinder	-8.77423
▁mějachu	-8.77475
▁t	-8.77626
▁Te	-8.77627
icht	-8.77757
tne	-8.78133
▁Ž	-8.7874
▁słowa	-8.78825
▁durch	-8.78881
▁Před	-8.78964
▁zaměr	-8.7915
▁ničo	-8.79251
čan	-8.79391
kowa	-8.79539
▁kóncu	-8.79665
ver	-8.79686
▁wotewrje	-8.79879
ent	-8.79915
▁Mjez	-8.80193
▁njeby	-8.80219
enje	-8.80267
▁Tuž	-8.80312
▁dołho	-8.80313
▁b	-8.80429
▁šuli	-8.8046
▁knihi	-8.80504
8	-8.80614
ćě	-8.80907
▁skupiny	-8.81054
mer	-8.81173
▁Ho	-8.81343
▁hakle	-8.8153
enju	-8.81571
▁było	-8.81706
▁towarstwo	-8.81898
▁skutk	-8.82019
op	-8.82075
▁ći	-8.82136
▁mjeztym	-8.82198
".	-8.82261
sche	-8.82374
▁septembra	-8.82406
▁Berlin	-8.82486
už	-8.82556
owany	-8.82592
▁...	-8.82635
▁Měrćin	-8.82676
▁prěnje	-8.827
low	-8.82864
▁nowy	-8.82878
▁Němskeje	-8.82941
▁stron	-8.82974
▁był	-8.83027
▁bli	-8.83242
▁město	-8.8349
U	-8.83862
▁Sorben	-8.84034
▁kotrychž	-8.84298
▁tutoho	-8.84427
▁le	-8.84624
▁słuša	-8.84689
▁Sprache	-8.84817
nišćo	-8.8498
▁prezident	-8.85004
▁St	-8.85025
zna	-8.8518
▁njez	-8.8541
dr	-8.8555
▁alle	-8.85566
▁Foto	-8.85568
▁wosady	-8.85681
▁wobłuku	-8.85929
id	-8.86024
▁hlada	-8.86056
ment	-8.86122
rk	-8.86193
▁Ru	-8.86302
▁prof	-8.86544
bar	-8.86562
▁njech	-8.86717
▁zakład	-8.86836
▁wšitke	-8.87018
▁wokoło	-8.87155
ischen	-8.87249
▁ani	-8.87314
▁wus	-8.87321
nder	-8.87338
měr	-8.87484
▁Jeho	-8.87759
▁smě	-8.8788
F	-8.87906
▁junija	-8.87966
ft	-8.88005
▁nimi	-8.88025
▁oktobra	-8.88033
rjad	-8.8819
▁čłon	-8.88244
▁č	-8.88293
▁Kr	-8.88341
cych	-8.88398
v	-8.88415
▁pad	-8.88443
▁zetka	-8.88459
▁/	-8.88577
▁zwjazk	-8.88723
▁našeho	-8.8877
▁pyta	-8.88813
▁dźe	-8.88834
▁einer	-8.88882
ika	-8.89138
pf	-8.89203
V	-8.89281
''.	-8.89362
▁poměr	-8.89478
▁19.	-8.89484
▁móc	-8.8949
▁móža	-8.89529
▁kemše	-8.89542
dni	-8.89663
än	-8.89712
▁rozsud	-8.89716
▁10	-8.89773
▁sćěh	-8.89774
▁Č	-8.89849
twar	-8.89881
▁swjateho	-8.89886
▁chcedźa	-8.90104
▁mamy	-8.90169
pad	-8.90467
▁mać	-8.90667
▁puću	-8.90715
▁či	-8.90816
▁ra	-8.90856
wó	-8.91069
▁starši	-8.91205
▁pjatk	-8.91214
▁lětstotka	-8.91222
▁Sa	-8.9129
▁twar	-8.91323
▁ludow	-8.91411
▁njes	-8.91423
▁wosob	-8.91455
▁problem	-8.91487
ił	-8.91566
nica	-8.91592
iske	-8.91636
▁sto	-8.91738
▁Hor	-8.9174
row	-8.92006
und	-8.92058
▁8	-8.92107
ješe	-8.92124
▁žiwjenju	-8.92129
▁wulke	-8.92214
▁Kultur	-8.92219
▁domje	-8.92319
▁Zo	-8.92448
▁Tola	-8.92464
▁dźesać	-8.92484
jenje	-8.92506
▁slěd	-8.92841
▁50	-8.92868
",	-8.92894
per	-8.93373
▁polu	-8.93395
mal	-8.93441
▁strona	-8.93483
ńdźe	-8.9351
▁wurde	-8.93522
▁přinošk	-8.93588
ož	-8.93664
▁Im	-8.93799
itz	-8.93838
emu	-8.93858
ens	-8.9386
▁měrca	-8.93898
▁ihr	-8.93939
▁tón	-8.93982
▁njemóže	-8.94084
▁čłowjek	-8.94106
berg	-8.94129
▁našich	-8.94169
▁dźěle	-8.94225
▁powěda	-8.94227
▁minister	-8.94305
▁naš	-8.94389
▁ihre	-8.94584
▁16	-8.94611
▁no	-8.94702
ken	-8.94797
▁Jahr	-8.95035
raz	-8.95135
▁aber	-8.9517
ór	-8.95206
form	-8.95226
tom	-8.95268
▁móhli	-8.95368
▁bis	-8.95556
'',	-8.95652
lět	-8.95977
ód	-8.9599
▁scyła	-8.96551
▁zawěsće	-8.9662
▁swojeje	-8.96621
ili	-8.96706
▁prašenja	-8.96844
▁hr	-8.9686
▁kole	-8.97125
▁ćišć	-8.97211
owar	-8.97433
▁Budyšina	-8.97485
osće	-8.97592
▁pas	-8.97648
▁stronje	-8.97675
▁wažne	-8.97848
▁Benedikt	-8.97887
dźeše	-8.98019
▁dny	-8.98047
cach	-8.98095
▁Su	-8.98279
kach	-8.98283
▁móhł	-8.98393
ciji	-8.98543
▁wulko	-8.98572
iert	-8.9858
land	-8.98619
▁Pawoł	-8.98654
▁doby	-8.98712
▁Cyž	-8.98723
▁syn	-8.98727
jim	-8.98757
th	-8.9877
ieren	-8.98907
▁tójšto	-8.98947
▁Hač	-8.99169
▁kubła	-8.99192
▁namjet	-8.99197
▁Zu	-8.99225
ój	-8.99412
nska	-8.99436
▁wumě	-8.99474
▁wobdźěl	-8.99554
liche	-8.99565
trow	-8.99578
▁awto	-8.99634
teil	-8.99773
▁městnje	-8.99864
▁Du	-8.99913
ły	-8.99975
acije	-9.00036
nskeho	-9.00237
▁swjedźeń	-9.00241
▁spěchowa	-9.00394
▁hosći	-9.00423
▁sein	-9.00702
ag	-9.00741
▁Malink	-9.00788
▁min	-9.01012
her	-9.01017
dźěl	-9.01021
▁hnydom	-9.0109
tka	-9.01143
▁Bautzen	-9.01179
serb	-9.0122
▁zdźěli	-9.0126
▁swjaty	-9.01327
čku	-9.01413
nskim	-9.01444
▁NDR	-9.01478
▁Brězan	-9.01634
▁domu	-9.01779
▁tydźenja	-9.01794
▁sebi	-9.01969
▁kwas	-9.02007
sp	-9.0202
▁noweho	-9.0215
eln	-9.02277
▁wita	-9.02471
▁kann	-9.02608
▁wobdźěli	-9.0265
▁susod	-9.02848
lä	-9.02918
▁30	-9.02918
dow	-9.02959
▁apryla	-9.02967
▁Tute	-9.03038
gr	-9.0315
▁Ar	-9.03397
▁Mit	-9.03425
▁wšitkich	-9.03442
▁sće	-9.03501
▁jón	-9.03515
tny	-9.03517
kec	-9.03518
är	-9.03519
▁Dom	-9.03586
▁Vor	-9.03608
▁3.	-9.03635
20	-9.03672
pisa	-9.03679
▁wuk	-9.03743
lin	-9.039
▁prěnim	-9.03913
▁bi	-9.0396
▁znate	-9.04088
žo	-9.04134
▁Ne	-9.04176
lt	-9.04239
▁nowembra	-9.04239
▁sp	-9.04268
▁załož	-9.04436
tt	-9.04598
▁zwurazni	-9.04639
nemu	-9.04682
ymi	-9.0481
ěrowa	-9.04854
słow	-9.04945
▁třě	-9.04951
▁Wie	-9.05035
pu	-9.0509
tar	-9.05129
▁Tole	-9.05188
vi	-9.0539
▁Hu	-9.055
▁nowo	-9.05519
▁našim	-9.0557
▁Serbske	-9.05582
▁prawo	-9.05815
▁tole	-9.05987
pr	-9.06118
oh	-9.06271
▁docpě	-9.06368
▁tutych	-9.06523
▁kotrehož	-9.06585
fi	-9.06595
až	-9.06743
▁nima	-9.06768
▁Auf	-9.06778
▁20.	-9.06804
▁měsac	-9.0684
▁Budyskim	-9.06853
▁wotpowěd	-9.06958
▁přednošk	-9.06997
▁Michał	-9.07027
▁No	-9.07146
acija	-9.07158
▁žane	-9.07186
reich	-9.07287
isce	-9.07309
▁wozjewi	-9.07407
nosće	-9.07434
rod	-9.07446
žu	-9.07551
▁sebje	-9.07558
▁wopyt	-9.07586
iska	-9.07673
▁měł	-9.0769
▁2010	-9.07762
▁januara	-9.07907
šk	-9.07986
▁wobsah	-9.08119
staj	-9.08346
▁wosta	-9.08434
žkuli	-9.0849
▁Serbskeje	-9.08581
▁können	-9.08653
▁hromadźe	-9.08695
▁Drježdźan	-9.08701
ćh	-9.08741
▁dalšich	-9.0878
▁Ku	-9.08829
▁najprjedy	-9.08904
nikow	-9.08959
▁14	-9.0904
▁kraja	-9.09077
ische	-9.09124
▁fararja	-9.092
▁Kaž	-9.0921
▁móžnosć	-9.09215
▁awgusta	-9.09324
▁woni	-9.09513
rei	-9.09639
mor	-9.09647
dom	-9.09666
ji	-9.09741
▁pó	-9.09829
aciju	-9.1003
ein	-9.10038
▁zawod	-9.10085
▁kulturu	-9.10093
ran	-9.10164
▁was	-9.10226
▁jónu	-9.10438
▁nowin	-9.1049
▁potajkim	-9.10509
▁4.	-9.10726
▁lubosć	-9.10737
schen	-9.10751
stwu	-9.10839
▁1945	-9.1089
čki	-9.11119
▁dobry	-9.11319
▁pri	-9.11374
▁film	-9.11377
▁wustaw	-9.11538
▁mó	-9.11552
▁trěbne	-9.11622
owu	-9.11693
▁zwjazka	-9.11876
▁stud	-9.1205
▁štyri	-9.12053
▁poćah	-9.12067
▁Wě	-9.12122
wiz	-9.12451
▁zahaji	-9.12487
tion	-9.12572
▁Drježdźanach	-9.12572
▁přińdźe	-9.12635
lichen	-9.12673
▁Tohodla	-9.12747
mp	-9.1275
rosće	-9.12773
▁předstaje	-9.12789
njach	-9.12881
▁stare	-9.13031
niši	-9.13145
▁naše	-9.1315
▁bamž	-9.13171
▁Budyskeho	-9.13253
enja	-9.13283
▁Mě	-9.13283
skemu	-9.13316
▁muž	-9.13318
▁wozjewje	-9.13347
▁Serbska	-9.13362
▁dyrbja	-9.13486
▁wšitko	-9.13534
VI	-9.13536
▁Kak	-9.13764
▁julija	-9.13889
▁Wosebje	-9.13974
▁60	-9.14052
▁25	-9.14104
▁mor	-9.14132
▁př	-9.14236
▁mnohich	-9.14239
▁wšelakich	-9.14239
▁Nach	-9.14241
▁Pětr	-9.14329
elt	-9.1438
sel	-9.14382
▁wuš	-9.14434
▁kulturne	-9.1455
tro	-9.14602
▁Što	-9.14683
wer	-9.147
▁jo	-9.14719
rat	-9.14786
owace	-9.14865
burg	-9.14888
▁tutu	-9.14974
▁kniha	-9.15038
▁swěta	-9.15078
▁nur	-9.15277
▁dyrbješe	-9.15305
▁pomha	-9.15308
▁swójby	-9.15401
▁zemrě	-9.15494
staw	-9.15495
▁běhu	-9.156
wać	-9.15614
lub	-9.15652
kami	-9.15753
rad	-9.15833
▁zhoni	-9.15938
▁wupraji	-9.15943
▁9	-9.15952
nskej	-9.16003
ot	-9.16061
pp	-9.16234
▁Kon	-9.1624
▁Bože	-9.16311
üh	-9.16377
▁40	-9.16482
▁wustup	-9.16585
▁Wotrow	-9.16602
▁spyta	-9.16767
▁man	-9.16947
▁10.	-9.16965
▁zwei	-9.16984
poł	-9.16999
▁maćer	-9.17013
<<	-9.17017
tung	-9.1706
dle	-9.17297
▁rozdźěl	-9.17335
▁5.	-9.17368
▁Nětko	-9.17385
sse	-9.17483
▁procentow	-9.17534
▁Kulow	-9.17572
▁ke	-9.17607
tag	-9.17729
▁(19	-9.17864
▁załoži	-9.17929
dar	-9.18016
▁decembra	-9.18021
▁Fa	-9.18196
zeit	-9.18238
▁tohodla	-9.18245
▁swě	-9.18257
▁Ab	-9.18275
▁tele	-9.18293
▁znajmjeńša	-9.18297
▁dźiwa	-9.18326
ori	-9.18369
nskich	-9.18398
▁pre	-9.18444
▁wšelake	-9.18481
achu	-9.18535
▁wšě	-9.18655
▁skupin	-9.18679
▁třoch	-9.18696
▁mehr	-9.18774
▁mustwo	-9.18807
▁njesmě	-9.18866
▁započa	-9.18923
▁přičin	-9.18957
▁tuteje	-9.19022
▁Choćebuz	-9.19162
eg	-9.19223
▁zarjadowa	-9.19449
▁un	-9.19455
wši	-9.19458
▁słowo	-9.19506
▁čě	-9.19547
▁křesćan	-9.19591
▁12.	-9.19666
▁spo	-9.19718
▁Sy	-9.19878
end	-9.19878
▁stara	-9.1999
wjed	-9.20005
Na	-9.20023
ču	-9.20024
▁haj	-9.20055
▁šěsć	-9.20249
▁će	-9.20296
aus	-9.20402
▁małe	-9.20468
fa	-9.20528
▁Boha	-9.20554
▁zhromadne	-9.20597
▁Ni	-9.20722
rka	-9.20783
▁6	-9.20785
▁Di	-9.20991
▁7	-9.2102
▁młodych	-9.21141
mó	-9.21147
nyć	-9.21157
▁swojimi	-9.21276
▁Sym	-9.21284
ed	-9.21411
▁Pro	-9.21502
▁njeza	-9.21503
▁spočatk	-9.21522
▁podpěru	-9.21571
▁diese	-9.21588
jenja	-9.21734
▁financ	-9.21758
▁prašenje	-9.21763
▁Str	-9.21788
nišću	-9.21884
▁br	-9.21943
▁składnosć	-9.22041
▁list	-9.22166
niše	-9.22283
▁ta	-9.22367
▁ent	-9.22401
▁Bra	-9.22402
▁Kor	-9.22444
▁gut	-9.22508
▁mjeno	-9.22895
py	-9.22952
▁jej	-9.22996
os	-9.23042
▁Es	-9.23172
▁Kra	-9.23174
▁Lu	-9.23202
▁Pi	-9.23202
▁trochu	-9.23402
▁pr	-9.23581
▁němskich	-9.2363
▁ty	-9.23717
▁De	-9.23726
▁Pola	-9.2388
▁centrum	-9.2388
lk	-9.24001
▁zapad	-9.24061
▁přepoda	-9.24078
▁8.	-9.24079
▁loni	-9.24171
▁Krawc	-9.24178
šća	-9.24181
twor	-9.24219
měst	-9.24257
▁woprawdźe	-9.24392
ren	-9.24396
lnje	-9.24491
sle	-9.24495
▁njewě	-9.24519
při	-9.24571
sća	-9.2464
schaft	-9.24655
▁seminar	-9.24663
▁wójny	-9.24667
▁něhdy	-9.24865
ng	-9.24877
▁zwuč	-9.24916
▁słuž	-9.24927
▁skónčnje	-9.25058
▁>>	-9.25153
▁wobsta	-9.25169
▁swjeći	-9.25227
▁ró	-9.25301
▁zarjadowanja	-9.25331
▁moje	-9.25375
heit	-9.25381
spě	-9.25409
▁WITAJ	-9.2545
▁wójnje	-9.25458
▁habe	-9.25469
▁pomnik	-9.25515
nal	-9.25542
▁hodźin	-9.25543
ek	-9.2557
recht	-9.25626
iki	-9.25645
▁Zeit	-9.25662
▁zašł	-9.25694
▁strony	-9.25727
▁wuč	-9.25737
▁cyłk	-9.2579
stup	-9.25907
icy	-9.25938
ř	-9.25955
”.	-9.26016
▁Ihr	-9.26068
▁nyšpor	-9.26144
▁einem	-9.26198
▁6.	-9.262
cym	-9.26246
jam	-9.26288
▁c	-9.263
nden	-9.26319
10	-9.26435
▁U	-9.26559
▁Ně	-9.26626
Wo	-9.26731
▁poskitk	-9.26757
▁staw	-9.26759
nistwo	-9.26768
ale	-9.26799
▁jeno	-9.26817
▁Bart	-9.26851
▁mało	-9.26932
▁stawizny	-9.26944
▁wrota	-9.26991
nki	-9.27023
ucha	-9.27081
▁narodne	-9.27105
▁seine	-9.2712
▁dowol	-9.2718
▁nowym	-9.27271
▁februara	-9.27313
▁dokument	-9.27347
▁projekt	-9.27386
▁druhej	-9.27552
▁ně	-9.27557
ška	-9.27607
rich	-9.27644
jemi	-9.27681
ceho	-9.27774
▁městna	-9.27792
stat	-9.27823
tel	-9.2786
▁hru	-9.27896
tal	-9.27994
▁mir	-9.28097
ně	-9.28152
▁kup	-9.28212
stand	-9.28247
▁njewu	-9.28283
▁zda	-9.28315
▁ratar	-9.28328
▁wostanje	-9.28374
▁spisowaćel	-9.28425
wal	-9.28482
▁Ba	-9.28518
jacy	-9.2864
▁Pod	-9.28725
▁12	-9.28779
▁sydom	-9.288
▁Dźensa	-9.28869
▁wukon	-9.28877
'	-9.289
▁wid	-9.29027
▁knjez	-9.29037
▁wjetši	-9.29079
▁wěnowa	-9.29123
ser	-9.29267
nskeje	-9.29344
rjam	-9.29344
▁di	-9.29438
▁snano	-9.2959
▁zdźěla	-9.29605
▁wokrjes	-9.29628
15	-9.29719
jachu	-9.29855
▁pjenjez	-9.29878
▁Maćicy	-9.29897
▁dalši	-9.29927
bau	-9.29958
▁Herr	-9.29977
▁přistup	-9.29999
▁Han	-9.30039
ciju	-9.30076
▁Praze	-9.30097
▁napřećo	-9.30208
▁tuchwilu	-9.30311
ěd	-9.30358
gar	-9.30407
stron	-9.30422
▁wup	-9.30426
▁hrě	-9.30428
▁zwjetša	-9.30519
▁will	-9.30562
▁bra	-9.30578
jej	-9.30674
▁hry	-9.30678
▁muss	-9.30732
čenjo	-9.30804
Ł	-9.30835
▁Gott	-9.30858
sław	-9.31027
▁wuwiće	-9.31044
▁tema	-9.3144
▁lědma	-9.3146
▁zwisku	-9.31514
rb	-9.31538
▁Serbam	-9.31543
▁hin	-9.31562
gel	-9.31594
▁18.	-9.31641
rom	-9.31659
▁měsće	-9.31705
ruč	-9.31738
▁wěsty	-9.31748
▁wosebite	-9.31775
▁dać	-9.31779
▁wjac	-9.31861
▁9.	-9.32025
izm	-9.32281
▁Dale	-9.32298
co	-9.323
bor	-9.32333
naj	-9.32395
hra	-9.32465
eše	-9.3248
▁Dokelž	-9.32515
▁neue	-9.32677
▁čo	-9.32706
▁Jurja	-9.32783
▁bórze	-9.32834
▁mod	-9.32841
▁zhromadnosć	-9.32942
isch	-9.32944
▁nawodom	-9.32994
▁pól	-9.33007
nost	-9.33018
▁mnje	-9.33072
▁dnju	-9.33079
▁her	-9.33105
▁Berlinje	-9.3316
▁Bena	-9.33258
šće	-9.33287
▁Kat	-9.3334
ću	-9.33417
ve	-9.33471
▁postup	-9.3351
ord	-9.33529
ujo	-9.33551
▁Chrósćicach	-9.33658
▁15.	-9.33672
star	-9.33804
▁rozsudźi	-9.33815
tk	-9.33938
tru	-9.34062
▁17.	-9.34088
politi	-9.34104
iski	-9.34114
▁druhi	-9.34208
18	-9.34228
ew	-9.34324
pe	-9.34376
▁7.	-9.34431
as	-9.34474
▁znaty	-9.34488
▁powoła	-9.34513
▁slědźe	-9.34575
dawa	-9.34618
▁towarstwow	-9.34665
▁partner	-9.34679
▁tr	-9.34818
▁podawk	-9.34837
▁byli	-9.34841
▁aktiw	-9.34853
pušć	-9.3486
▁wulkej	-9.34878
▁młodostnych	-9.35038
▁Arbeit	-9.35089
▁eks	-9.35145
▁nowych	-9.35225
▁14.	-9.35263
▁wuspěch	-9.35312
rit	-9.35325
▁13.	-9.35358
▁přichod	-9.35361
▁swěće	-9.35466
▁student	-9.35506
iny	-9.35513
▁poslednje	-9.35531
▁skerje	-9.35538
▁wuraz	-9.3555
▁sowie	-9.35954
▁wuda	-9.3606
ški	-9.3606
eiß	-9.36085
▁2005	-9.36108
▁Was	-9.36133
▁dožiwi	-9.36161
▁ćah	-9.36188
▁lěs	-9.3627
▁row	-9.363
rske	-9.36361
▁daloko	-9.3641
▁zezna	-9.36465
▁mj	-9.3653
bra	-9.36562
▁Nowak	-9.36587
rjej	-9.3659
▁serbšćiny	-9.36635
▁zhubi	-9.36656
nišća	-9.36829
▁wosebity	-9.36852
▁widźi	-9.37018
▁njepo	-9.3706
wob	-9.37065
▁biskopa	-9.37068
▁stawiznow	-9.37074
▁soll	-9.3708
ige	-9.37089
▁mysle	-9.3711
Po	-9.37119
▁časopis	-9.37281
▁někotrych	-9.37296
tr	-9.37327
▁prawje	-9.37441
ende	-9.37498
▁serbscy	-9.37538
ät	-9.37541
▁česć	-9.37577
▁13	-9.37586
▁kruh	-9.37597
▁Bi	-9.37629
nom	-9.37709
▁kar	-9.37712
▁dwaj	-9.37746
lic	-9.37747
▁přebywa	-9.37749
▁Lo	-9.37776
▁dypk	-9.37779
▁Jakub	-9.37782
▁jubilej	-9.37854
▁rjany	-9.37917
▁nastupajo	-9.37939
rnje	-9.38031
▁wuměłcow	-9.3807
▁šulerjow	-9.38154
▁Volk	-9.38172
▁Łužica	-9.38183
▁naležnosć	-9.38297
▁wopor	-9.38305
ov	-9.38371
▁hosćo	-9.38431
▁kraju	-9.38443
▁rjane	-9.38473
tig	-9.38502
▁Schul	-9.38521
ab	-9.38534
nca	-9.3854
cijow	-9.3854
▁tule	-9.38572
▁Pawoła	-9.38621
ujemy	-9.38629
▁Fi	-9.38748
▁Stadt	-9.38757
stawa	-9.38915
▁Projekt	-9.3898
▁Sorbischen	-9.3904
▁wšako	-9.39167
owacy	-9.39232
ok	-9.39285
▁tajki	-9.39304
sah	-9.39394
eny	-9.39415
▁Tr	-9.39493
▁literatury	-9.39548
▁zarjadowanje	-9.3957
iskich	-9.39588
▁přida	-9.39616
▁wěste	-9.39827
va	-9.39835
▁temu	-9.39867
▁čaka	-9.39908
dźěła	-9.3999
▁welche	-9.40059
ica	-9.40219
▁Mikławš	-9.40232
▁jedne	-9.40257
▁SLA	-9.40347
▁dnjow	-9.40423
▁11.	-9.40483
▁wieder	-9.4052
sty	-9.40558
šim	-9.40634
▁mysl	-9.40658
▁krajow	-9.40711
▁našej	-9.40768
▁staro	-9.40793
▁knihow	-9.40808
▁strach	-9.40829
▁swójba	-9.40833
▁wulkim	-9.40889
▁et	-9.41065
▁hór	-9.41137
up	-9.41142
ator	-9.41144
čin	-9.41275
▁milionow	-9.41302
▁muzej	-9.41388
struktur	-9.41494
▁Tutón	-9.41501
hal	-9.41594
▁Budyskej	-9.416
▁Nawka	-9.41743
cej	-9.418
liči	-9.41815
▁mich	-9.4184
▁wjeršk	-9.41848
▁twórby	-9.4185
▁wosadźe	-9.41866
▁Božej	-9.41913
▁Schüler	-9.41966
▁Wjele	-9.42064
▁material	-9.42075
tiv	-9.42075
ör	-9.42192
▁kóžde	-9.42199
owała	-9.42208
▁kap	-9.42349
dnje	-9.42376
čer	-9.424
▁tych	-9.42476
▁Šołta	-9.42551
mar	-9.42592
▁Haj	-9.42643
ick	-9.42685
zen	-9.42697
▁ženje	-9.42727
▁zbožo	-9.42774
▁dwu	-9.42785
▁žiwy	-9.42879
rodźe	-9.42916
▁basni	-9.42933
for	-9.42962
dla	-9.4299
tet	-9.43037
▁Chrystus	-9.43048
▁sehr	-9.4305
▁16.	-9.43097
▁pjenjezy	-9.43164
tre	-9.43184
▁pokazuje	-9.43186
▁stawiznach	-9.4324
▁mysli	-9.43353
▁Beno	-9.43468
▁sport	-9.43474
▁Štóž	-9.43501
▁předsydstwa	-9.43518
▁nowu	-9.43552
▁Naj	-9.43601
▁zwěsći	-9.43649
čas	-9.43796
▁wuzběhny	-9.4385
▁pěstowa	-9.43972
▁Bohu	-9.43984
17	-9.44165
▁hodźi	-9.44186
▁předstaja	-9.44214
▁Bulank	-9.44332
waše	-9.44333
▁wó	-9.44448
ion	-9.44506
▁konferency	-9.44566
▁Kocor	-9.44927
▁wustajeńcy	-9.4493
▁Lub	-9.44981
▁Wone	-9.4508
▁hudźbn	-9.45208
▁dopomina	-9.45286
▁Zdobo	-9.45287
▁wěc	-9.4529
jě	-9.45333
▁wobšěrn	-9.45337
sam	-9.45398
stra	-9.45485
▁móžeše	-9.45549
▁často	-9.4556
▁činić	-9.45588
▁šulski	-9.45592
gu	-9.45672
▁lo	-9.457
▁0	-9.45715
▁bych	-9.45845
▁Potom	-9.45869
▁skutkowanje	-9.4597
tki	-9.46004
▁Franc	-9.46013
▁Sachsen	-9.46013
wali	-9.46025
▁fi	-9.46061
nosći	-9.46064
▁wudać	-9.46071
▁Tag	-9.46152
▁Diese	-9.46319
▁euch	-9.46343
▁Menschen	-9.46344
▁štó	-9.46379
ice	-9.46424
▁móžno	-9.46503
fr	-9.4652
bel	-9.4653
▁schon	-9.46563
nsku	-9.46597
ling	-9.46636
słužb	-9.46646
▁lěpje	-9.46762
ost	-9.46789
iskim	-9.4684
▁němske	-9.46844
▁Mjeztym	-9.47003
rnjež	-9.47052
CDU	-9.47201
▁basnik	-9.47302
▁našeje	-9.47495
▁Handrij	-9.47542
▁pje	-9.47546
▁wukubła	-9.47682
hłos	-9.4778
art	-9.47816
run	-9.47816
▁kurs	-9.47839
▁wosom	-9.47933
kla	-9.47945
▁ličba	-9.47975
čk	-9.48042
inu	-9.48045
io	-9.48214
▁wospjet	-9.48222
▁rada	-9.48233
▁wšědnje	-9.48234
▁Jahre	-9.4824
▁němskej	-9.48359
nis	-9.48523
try	-9.48564
▁Budyski	-9.48586
pře	-9.48587
ation	-9.48595
▁hudźbu	-9.48605
▁nawoda	-9.48636
nowa	-9.48703
dźě	-9.48713
▁Mark	-9.48733
▁husto	-9.48799
▁tekst	-9.48854
▁cyły	-9.48916
▁ab	-9.48928
eder	-9.48968
▁jězor	-9.48971
▁Smoler	-9.49216
gra	-9.49257
št	-9.49385
▁organ	-9.49387
sion	-9.49457
▁wyše	-9.49539
tsch	-9.49625
▁njepře	-9.49639
▁hudźbne	-9.49655
pre	-9.49657
▁100	-9.49676
To	-9.49692
ład	-9.49701
▁zjaw	-9.4971
anz	-9.4973
▁šulu	-9.49736
▁luda	-9.4974
źi	-9.49781
▁Bei	-9.49792
▁jeničce	-9.4985
▁kop	-9.499
▁rjec	-9.49924
▁chcył	-9.49941
▁widźeć	-9.50027
▁mocy	-9.50036
▁podpěra	-9.50102
▁přichodne	-9.50276
ndźe	-9.503
ora	-9.50496
kultur	-9.50504
šći	-9.50617
▁wuži	-9.50646
▁Choćebuzu	-9.50691
▁zwjazkoweho	-9.50765
▁Co	-9.50792
▁tydźeń	-9.50864
▁wuběr	-9.50903
niž	-9.5098
▁narodnych	-9.51008
▁Radwor	-9.51056
▁mnozy	-9.51119
Š	-9.5121
▁zwjaza	-9.51211
▁Lipsku	-9.51236
▁přetož	-9.51248
ell	-9.51278
▁unsere	-9.51403
wjaz	-9.51479
▁wuměłstwo	-9.51565
▁spisa	-9.51585
▁budu	-9.51612
▁Božu	-9.5166
▁wobydlerjow	-9.51663
bow	-9.51741
▁chětro	-9.5176
▁mnoho	-9.51761
▁pomocu	-9.51884
▁komponist	-9.51892
▁Her	-9.51953
▁čłonow	-9.5197
scher	-9.52023
of	-9.5204
▁dospołnje	-9.52152
isku	-9.5229
▁Hórnik	-9.5231
ško	-9.52312
▁bychmy	-9.52325
eit	-9.52381
▁wulka	-9.52413
enden	-9.52431
▁móžemy	-9.52461
innen	-9.52483
▁młodźiny	-9.52516
▁změje	-9.52554
▁op	-9.52587
▁Mje	-9.5259
▁dźensnišeho	-9.52611
▁Arnošt	-9.52665
▁Boži	-9.52787
▁zmysle	-9.52796
▁konkret	-9.52809
▁Lausitz	-9.52829
▁wědom	-9.52847
▁Zwjazk	-9.5287
▁Sakskej	-9.52979
▁ro	-9.53053
▁druhdy	-9.53055
▁Fl	-9.5309
▁dźěłow	-9.53154
▁sami	-9.53209
▁Verein	-9.53227
▁hier	-9.53243
pt	-9.53266
stehen	-9.53324
▁hudźby	-9.53326
▁napisa	-9.53395
▁Ga	-9.53452
▁Roz	-9.53551
ać	-9.5356
dru	-9.53743
▁katolskich	-9.53744
alne	-9.53783
▁pochadźa	-9.53877
▁Nuk	-9.53977
skimi	-9.53991
ann	-9.54007
▁spěšnje	-9.54028
čo	-9.5407
▁la	-9.5414
▁kónčin	-9.54258
▁spózna	-9.5426
▁chowa	-9.54261
▁publikum	-9.54272
▁serbskimi	-9.54291
▁přewjedźe	-9.54313
▁přehlad	-9.54347
▁narodneho	-9.54375
▁basnje	-9.5438
cent	-9.54461
▁nawod	-9.54476
▁přiwza	-9.54503
▁Łu	-9.54521
žiwje	-9.54535
ijow	-9.54599
▁nałožk	-9.54627
▁knihu	-9.54632
▁porjad	-9.54635
nić	-9.54755
▁sem	-9.5476
▁weiter	-9.54815
iskeho	-9.54846
▁nu	-9.54869
▁Institut	-9.54896
▁nawukny	-9.54896
▁wuměłske	-9.54913
▁ansambl	-9.54984
▁mam	-9.55019
▁młodźi	-9.55059
▁mjenujcy	-9.55161
▁El	-9.55171
▁ewangelske	-9.55218
nde	-9.5524
▁była	-9.55311
lf	-9.55323
▁spěwy	-9.55382
▁zapisa	-9.55399
▁Prěni	-9.55429
iskej	-9.55452
▁Marijin	-9.55454
▁Neu	-9.55474
▁Wer	-9.55494
▁literarn	-9.55543
▁poradź	-9.55553
nar	-9.55567
▁kral	-9.55715
▁stać	-9.55753
hó	-9.55814
▁poprawom	-9.55829
njenje	-9.55875
nam	-9.55943
tan	-9.56069
▁direktor	-9.56073
▁chcyše	-9.56098
ang	-9.56103
osći	-9.56179
óz	-9.56264
dne	-9.56326
▁Pólskej	-9.56333
uju	-9.56377
▁zwonka	-9.56394
▁Pre	-9.56443
łód	-9.5648
▁Jo	-9.56525
▁wjedźe	-9.56545
▁prěnjej	-9.56553
▁pu	-9.56567
▁wěry	-9.56587
▁žadyn	-9.56636
▁prjedy	-9.56636
tosć	-9.56649
▁sewjer	-9.56665
▁Woni	-9.56704
kri	-9.56715
▁dźěławosć	-9.56822
▁njetrjeba	-9.56906
▁Sprach	-9.56914
▁Sam	-9.57006
pl	-9.57014
hub	-9.5707
▁ob	-9.57126
▁dźěćo	-9.5716
łowje	-9.57449
kle	-9.57521
ht	-9.57551
▁blisko	-9.57608
▁šulerjo	-9.57674
▁Kamjen	-9.57697
▁rum	-9.57698
▁fo	-9.57705
▁Pó	-9.57729
▁připózna	-9.5773
▁hłowny	-9.57793
lětne	-9.57793
▁meine	-9.579
▁Ger	-9.57902
▁klub	-9.57924
▁Vi	-9.57951
▁narěč	-9.5796
gend	-9.57962
arbeit	-9.57991
▁šula	-9.58005
▁duchowny	-9.58026
spr	-9.5809
▁viel	-9.58112
tře	-9.58122
▁Lě	-9.58186
▁Rom	-9.58201
▁serb	-9.58274
▁chóra	-9.58339
▁he	-9.58348
▁My	-9.58472
ron	-9.58481
▁wědomosć	-9.58507
▁80	-9.58543
▁festiwal	-9.58545
▁wusyła	-9.58546
▁ganz	-9.58585
lang	-9.58649
▁He	-9.58743
fin	-9.58791
▁proces	-9.5882
▁LND	-9.5882
▁pódla	-9.58972
ierung	-9.58987
jenju	-9.59059
njene	-9.59194
▁ćežko	-9.59235
▁štwórtk	-9.59238
▁zetkanje	-9.59259
▁čini	-9.59332
▁chor	-9.59364
▁poskići	-9.59377
kel	-9.5945
▁sejma	-9.59571
dna	-9.59577
▁čłowjeka	-9.59691
▁steješe	-9.59694
▁rěča	-9.59743
▁prezent	-9.59791
▁hódnoće	-9.5988
▁Knjez	-9.59887
▁duchown	-9.59902
▁měć	-9.59981
▁Runje	-9.59998
▁rozmołwje	-9.6007
▁spomina	-9.60078
▁bur	-9.60106
išće	-9.6015
▁telko	-9.60353
▁dźiwadło	-9.60385
duk	-9.60468
▁wenn	-9.60474
▁dobro	-9.60479
kan	-9.60485
▁Kral	-9.60502
dny	-9.60542
▁rjadow	-9.60578
▁změni	-9.60655
▁wobłuk	-9.60689
▁22.	-9.60707
▁towarš	-9.60721
▁Und	-9.60725
pja	-9.60777
▁kóždeho	-9.60801
rost	-9.60881
▁chwal	-9.60884
▁wulku	-9.60916
▁200	-9.60958
▁dele	-9.60962
sehen	-9.61042
▁muzeju	-9.61054
▁wustajeńca	-9.61059
▁rad	-9.61072
nišo	-9.61157
ace	-9.61176
▁35	-9.61177
▁Čorn	-9.61185
jace	-9.61233
▁25.	-9.61266
▁wuwi	-9.61288
▁prakti	-9.61393
▁prawa	-9.6145
tiske	-9.61497
▁politiske	-9.61555
wuměłsk	-9.61569
rin	-9.61572
▁Für	-9.61621
ź	-9.61742
▁1990	-9.61822
běh	-9.61828
tri	-9.61905
▁wótc	-9.61915
▁měrje	-9.61921
▁cyłe	-9.61937
▁metrow	-9.61938
rjemi	-9.61945
▁dieser	-9.6201
▁šěr	-9.62017
▁popołdnju	-9.62046
stwow	-9.62061
▁jednej	-9.62094
28	-9.62125
▁zajimawe	-9.62232
▁CDU	-9.62236
▁zasadźe	-9.623
▁70	-9.62343
▁nahlad	-9.6242
▁wočak	-9.62421
▁měło	-9.62435
▁natwari	-9.62438
jće	-9.62486
▁moler	-9.62503
mjer	-9.62563
ans	-9.62601
▁samsne	-9.6268
▁Vatikan	-9.62762
▁maš	-9.62794
tym	-9.62904
▁něhdyši	-9.62942
▁wuslědk	-9.6301
▁dźiwadłow	-9.63031
11	-9.63083
12	-9.63094
▁nocy	-9.63118
▁Lorenc	-9.63194
▁Wězo	-9.63224
▁Um	-9.63242
staji	-9.6337
▁dwěmaj	-9.6338
▁nichtó	-9.63428
26	-9.63451
iku	-9.63479
▁wosadne	-9.63484
▁Hłown	-9.63488
▁Land	-9.63505
▁škit	-9.63545
eć	-9.63565
▁nowa	-9.63601
▁krajne	-9.63658
▁Bar	-9.63675
▁dał	-9.63748
▁modern	-9.63848
▁knježerstwo	-9.63953
▁přełož	-9.63972
hren	-9.63986
▁kul	-9.64015
▁waren	-9.64036
▁nazhonjenja	-9.64062
słyš	-9.64071
▁Domowinsk	-9.6409
▁Den	-9.64091
▁přećelow	-9.64117
▁disku	-9.64127
kup	-9.64156
▁wróćo	-9.64209
▁myto	-9.64214
.”	-9.64292
▁Bjarnat	-9.64354
▁wobhlada	-9.64365
▁swójske	-9.64387
▁dir	-9.64556
▁gymnazija	-9.64599
▁wobchad	-9.646
▁přichodźe	-9.64624
▁němsce	-9.64647
▁měnjenju	-9.64647
▁keine	-9.64667
▁lěkar	-9.64691
▁Nowe	-9.64709
▁mjezynarodn	-9.64782
▁prócu	-9.64792
▁cyłej	-9.64799
▁mjenowany	-9.64803
Za	-9.64835
▁njepři	-9.64877
zabaw	-9.64921
era	-9.64966
▁podźěl	-9.64975
kor	-9.65071
50	-9.65148
▁dyrbjachu	-9.65211
▁wody	-9.65276
iskeje	-9.65291
▁přełožk	-9.65313
chadźa	-9.65326
nył	-9.65432
▁informa	-9.65485
▁wšeho	-9.65511
ńcy	-9.65611
▁Kar	-9.65666
▁wokomik	-9.65829
▁wuměnk	-9.65865
▁domjacy	-9.65883
▁bar	-9.65896
▁kamjen	-9.65948
▁pomjenowa	-9.65972
trje	-9.66087
▁kur	-9.66144
▁instituta	-9.66164
ćo	-9.66173
▁prě	-9.66261
▁sakske	-9.66311
▁znaje	-9.66369
▁mały	-9.6637
▁wosada	-9.66445
▁Un	-9.66466
▁žiwi	-9.66503
▁prózdn	-9.66566
▁ska	-9.66645
▁komu	-9.66771
▁Koch	-9.66804
budź	-9.66811
▁Wićaz	-9.66865
▁wuchadźa	-9.66877
▁region	-9.66912
▁nastawk	-9.66944
▁wróći	-9.6702
▁fachow	-9.67101
▁Bau	-9.67157
▁Nowy	-9.67157
▁wažny	-9.67163
▁hu	-9.67268
▁powěsć	-9.67331
chmoj	-9.67463
▁jednym	-9.67488
▁motiw	-9.67536
▁mišter	-9.67576
▁heute	-9.67617
13	-9.67676
16	-9.67691
▁hudźbny	-9.67708
▁móžachu	-9.6771
wjedźe	-9.67759
law	-9.67795
weg	-9.6781
▁dźěłowe	-9.67838
▁póst	-9.67847
dźić	-9.679
▁26.	-9.67925
▁cyrkwinske	-9.67942
▁wuradźowa	-9.68069
▁zamołwitosć	-9.68069
▁klóšter	-9.68069
▁třeći	-9.6807
▁Farar	-9.68074
▁čłonojo	-9.68129
▁domoj	-9.68136
▁kónca	-9.68228
nach	-9.68237
▁praša	-9.68251
▁jutře	-9.68257
▁diesem	-9.68324
▁ins	-9.68333
▁Alojs	-9.68372
▁wichtig	-9.684
▁hód	-9.68413
▁Rad	-9.68457
▁kemšach	-9.68524
voll	-9.68557
▁tuta	-9.68587
▁sk	-9.68605
ěhdźe	-9.68613
▁Kub	-9.68629
dno	-9.68679
▁knize	-9.68682
▁Gemeinde	-9.68829
▁system	-9.68831
▁rumnosć	-9.68857
vor	-9.68872
▁młodźinske	-9.68958
▁tysac	-9.69008
▁wliw	-9.69045
▁500	-9.69128
▁łu	-9.69261
cken	-9.69271
▁kantor	-9.6929
▁wobswět	-9.69306
▁Hakle	-9.69319
ris	-9.69453
šćiny	-9.69514
▁Sorbische	-9.69579
▁skedźbni	-9.69594
▁titul	-9.69594
▁programa	-9.69622
čkow	-9.69636
▁lětnika	-9.69731
▁šulske	-9.69732
▁ange	-9.6979
▁viele	-9.69941
▁kopar	-9.69978
aciji	-9.70018
▁hi	-9.70027
ble	-9.70031
dła	-9.70056
igkeit	-9.70061
▁krasn	-9.70075
▁njeda	-9.70157
▁zakónči	-9.7021
▁měła	-9.70217
ič	-9.70222
▁kapłan	-9.70236
▁bamža	-9.70238
▁skónči	-9.70277
▁wuchowa	-9.70355
▁rozum	-9.70414
14	-9.70453
ograf	-9.70486
▁immer	-9.70513
▁Am	-9.70636
win	-9.70649
▁přewza	-9.70675
owało	-9.70677
▁zapřijeć	-9.70832
if	-9.70839
▁28.	-9.70886
haus	-9.70886
▁Nowin	-9.70895
stajić	-9.70908
▁21.	-9.70911
▁wjacore	-9.70988
▁wobydler	-9.71014
owana	-9.71018
dra	-9.71043
▁Sakskeje	-9.71076
▁charakter	-9.71161
auf	-9.71241
▁Sorbisch	-9.7133
dem	-9.71384
▁móhło	-9.71386
▁wobchowa	-9.71467
▁Bjez	-9.71475
▁Jahren	-9.71493
▁wobkrući	-9.71546
▁Lip	-9.71598
▁Hrjehor	-9.71613
▁Michael	-9.71613
šich	-9.71706
▁młyn	-9.71775
▁Delan	-9.71805
▁mjenowane	-9.71858
▁móžeš	-9.71927
▁kardinal	-9.71927
trjechi	-9.71945
▁Mil	-9.71972
▁rěčeć	-9.72021
▁steja	-9.72035
▁staršich	-9.72107
▁běštaj	-9.72152
▁dyrbjał	-9.72195
▁por	-9.72226
▁spočatka	-9.72247
▁kulturnym	-9.72346
▁njedo	-9.72351
▁Euro	-9.72424
▁gra	-9.72437
▁zjednoćen	-9.72491
▁EU	-9.72501
grafi	-9.72508
▁Delnjej	-9.72519
▁turněr	-9.72559
▁swjedźenja	-9.72569
▁hinak	-9.72598
▁mandźel	-9.72629
▁nošer	-9.72645
▁hewak	-9.72731
▁mšu	-9.72766
▁njewob	-9.72773
▁prědowa	-9.72795
▁dźěłać	-9.72816
▁wuzwoli	-9.73035
▁wšitkim	-9.73035
powě	-9.73205
▁Sokoł	-9.73531
pos	-9.73557
▁informowa	-9.73568
▁Drježdźany	-9.73701
▁posledni	-9.73722
▁dorost	-9.7374
▁Marja	-9.73829
▁muzeja	-9.73843
▁duch	-9.73892
owanjom	-9.73931
cz	-9.73951
▁zjawnosći	-9.7402
▁Rěč	-9.74136
▁Hodźij	-9.74162
▁pochad	-9.74164
▁Ł	-9.74273
▁maćerje	-9.74279
▁młodostni	-9.74316
▁Krabat	-9.7433
▁jednotliw	-9.74362
▁dort	-9.74385
▁narodźi	-9.74449
▁nakład	-9.74463
▁Wšitcy	-9.74477
ńca	-9.74491
▁Jugend	-9.74501
▁problemy	-9.74502
▁Pólskeje	-9.74517
▁štyrjoch	-9.74619
▁zaćišć	-9.74629
▁Par	-9.74699
▁njena	-9.74708
▁wustaje	-9.74762
eń	-9.74768
▁Al	-9.74779
▁kotre	-9.74899
▁kulturneho	-9.74951
kommen	-9.74969
▁próco	-9.74978
▁Njech	-9.7498
▁wjesny	-9.74996
▁nan	-9.75089
▁žurli	-9.75126
▁žony	-9.75135
▁publik	-9.75242
umje	-9.75289
tzen	-9.7529
▁tajkich	-9.75294
▁wopušći	-9.75332
85	-9.75352
ela	-9.75367
▁čimž	-9.754
▁kor	-9.7549
▁bin	-9.75497
▁roman	-9.75511
."	-9.75531
▁klětu	-9.75576
▁stolicy	-9.75615
▁fakt	-9.75623
▁słownik	-9.75634
izma	-9.75725
▁wutrobnje	-9.75777
▁kó	-9.75787
▁němskim	-9.75795
▁par	-9.75833
▁cy	-9.75874
▁rozprawja	-9.75941
něm	-9.75971
▁móžnosće	-9.75985
połoži	-9.75999
▁gemeinsam	-9.76105
▁tachant	-9.76105
▁bul	-9.76149
jach	-9.76172
▁swjedźenju	-9.76182
▁přeprosy	-9.76206
▁wyši	-9.76233
bt	-9.76292
▁zajimcow	-9.76342
stellung	-9.76344
▁nadawki	-9.76351
▁Kamjenc	-9.76367
▁póndźelu	-9.76433
▁dweju	-9.76433
▁dźěćom	-9.76493
▁hatte	-9.76565
▁wsach	-9.76571
▁někotři	-9.76598
▁komp	-9.76617
▁beide	-9.76626
▁rano	-9.76629
Nje	-9.76706
▁schadźowan	-9.76735
kónčn	-9.7676
▁hosćenc	-9.76763
▁zapósłanc	-9.76764
48	-9.76766
▁dojedna	-9.76767
hen	-9.76829
▁młody	-9.76833
▁ludoweho	-9.76843
▁ži	-9.76906
por	-9.76925
▁müssen	-9.76928
▁dźěćimi	-9.76944
▁27.	-9.76958
▁SPD	-9.76968
▁čisło	-9.77078
▁Jenož	-9.77096
▁Tuta	-9.77118
▁jasnje	-9.77144
▁rjedźe	-9.77149
Łuži	-9.77166
▁wuwiwa	-9.77192
▁Dyrlich	-9.7726
▁archiw	-9.7726
isća	-9.7727
▁Zhorjelc	-9.77282
▁chcu	-9.77317
▁23.	-9.77318
pod	-9.77328
▁njedźele	-9.77373
▁resp	-9.77373
hör	-9.77393
▁wuměłstwa	-9.77426
▁delnjoserbske	-9.77429
▁vom	-9.77446
▁Wil	-9.7746
▁11	-9.77464
▁lě	-9.77482
rjedź	-9.77525
▁Tón	-9.77548
▁zamó	-9.77644
▁30.	-9.77651
kol	-9.77691
▁twarje	-9.77691
▁hraje	-9.77725
▁ihm	-9.7776
▁začuwa	-9.77771
▁deine	-9.77826
dig	-9.77867
▁Ri	-9.77923
▁poradźi	-9.77927
srědk	-9.77952
rki	-9.77993
40	-9.78003
rozum	-9.781
▁móžne	-9.78102
▁mój	-9.7811
lek	-9.78198
▁24.	-9.78314
▁Radworju	-9.78377
▁swjeća	-9.78389
▁arcybiskop	-9.78428
▁Lud	-9.78534
▁porno	-9.78544
▁nałožowa	-9.78601
▁wollen	-9.78607
▁němski	-9.78612
▁šef	-9.78647
teho	-9.7866
wosć	-9.78744
▁přitomnosć	-9.7877
▁škita	-9.78774
▁tworja	-9.78832
dłow	-9.78865
des	-9.78874
▁Fach	-9.78875
tku	-9.78935
▁postara	-9.78954
▁29.	-9.7899
▁ludowe	-9.79013
Kukow	-9.79024
▁rólu	-9.79026
▁zajima	-9.79046
lič	-9.79061
▁Tomaš	-9.79104
▁smjerć	-9.79204
ona	-9.79212
rodź	-9.79305
▁Nowo	-9.79393
eck	-9.79413
▁přihladowa	-9.79414
▁Lehrer	-9.79431
▁zastara	-9.79468
▁přewodźe	-9.79492
▁směr	-9.79505
▁Nagel	-9.79567
▁Křesćan	-9.79611
▁Deutschland	-9.79622
▁druzy	-9.79785
▁kofej	-9.79793
▁pomhać	-9.79798
-19	-9.79813
▁swjedźensk	-9.79859
▁Serbami	-9.79878
▁jasne	-9.79884
▁něchtó	-9.79951
▁twórba	-9.79951
▁demokrat	-9.8005
▁modli	-9.80051
hlada	-9.80101
▁Europy	-9.80133
Č	-9.8016
▁(18	-9.80199
▁Božeje	-9.80219
nistwa	-9.8022
▁Gu	-9.80229
▁sko	-9.80344
▁Wy	-9.80388
zda	-9.80452
▁wotpokaza	-9.80464
▁große	-9.80489
schi	-9.80579
lětneho	-9.80641
▁Pančicach	-9.80731
25	-9.80754
▁cyłkownje	-9.8081
▁žona	-9.8085
▁Unter	-9.80863
▁zašłych	-9.80913
34	-9.80914
▁słowjanske	-9.80919
▁forma	-9.80944
išo	-9.80961
▁wjeselo	-9.80997
▁skutkowanja	-9.81042
Ja	-9.8105
tisce	-9.81059
▁Přez	-9.81117
źa	-9.81125
cio	-9.81133
gram	-9.81159
iła	-9.81197
▁Čěskej	-9.81386
▁składnostnje	-9.81498
▁žiwjenski	-9.81536
▁patr	-9.81541
▁wokrjesa	-9.81569
▁skruć	-9.81673
▁wobnowjen	-9.81684
▁wysok	-9.81731
▁statne	-9.81744
▁Mat	-9.81774
▁Joachim	-9.81845
▁prawi	-9.81907
tzt	-9.81933
▁Naš	-9.81942
▁Kóždy	-9.82018
▁dźiwadła	-9.82031
▁přewod	-9.82032
bach	-9.82032
▁1989	-9.82073
▁lětuši	-9.82081
▁swójbje	-9.82118
▁wotkry	-9.82183
▁Zwjazka	-9.82224
▁Waš	-9.82252
▁narodneje	-9.82315
▁krótko	-9.82367
▁pě	-9.82382
chtet	-9.82398
▁hólc	-9.82457
▁kultura	-9.82478
▁wuběrk	-9.8269
▁zeńdźe	-9.82744
▁socialne	-9.82751
sadźe	-9.82791
▁ewangel	-9.82808
▁knježerstwa	-9.82893
▁jednaćel	-9.829
▁Nic	-9.82906
serbske	-9.82958
▁rěčnik	-9.82958
▁swjateje	-9.82961
▁dalšim	-9.83052
▁Ziel	-9.83062
▁prosy	-9.83074
▁předsydstwo	-9.8313
▁kěrluše	-9.83323
ständig	-9.83334
38	-9.83348
▁wěri	-9.83372
▁zakładźe	-9.83396
leben	-9.8343
puć	-9.835
änder	-9.83515
▁mjena	-9.83564
▁wosadow	-9.83598
▁informacije	-9.83618
▁Posoł	-9.83631
▁twori	-9.83718
▁superintendent	-9.83774
▁stwori	-9.83793
▁wudawa	-9.83857
▁Wšako	-9.83954
▁pospyt	-9.83969
dźiw	-9.84015
tři	-9.84035
▁hrajer	-9.84042
▁By	-9.84048
▁noweje	-9.84062
▁móhła	-9.84084
lětna	-9.84087
▁njemóža	-9.8413
▁wužada	-9.84307
▁cuz	-9.84352
kul	-9.84355
▁wědomostne	-9.8447
▁NSLDź	-9.84486
▁zhromadźiznje	-9.84486
▁wutwori	-9.84487
▁wobrazy	-9.84533
▁běštej	-9.84565
syl	-9.84603
tika	-9.84609
▁štom	-9.84621
▁fotograf	-9.84622
boži	-9.84662
▁War	-9.84694
▁Němc	-9.84728
jědźe	-9.84819
▁nowej	-9.84828
nehmen	-9.84838
▁zwon	-9.84864
elle	-9.84874
▁hdy	-9.84888
ichu	-9.84922
▁Ca	-9.85035
▁eksist	-9.85079
▁wotměwa	-9.85103
▁samsnym	-9.85131
▁druheho	-9.85149
▁serbšćinu	-9.85208
▁Sk	-9.85233
▁Mein	-9.85284
▁kubłanje	-9.85301
▁Entwicklung	-9.85382
▁damit	-9.85392
▁wjesnjan	-9.85472
▁sobustaw	-9.85487
▁njedawno	-9.85562
▁srjedu	-9.85562
▁Europje	-9.85589
Rozhlad	-9.85639
▁wědomje	-9.8568
▁wučerjow	-9.85699
.000	-9.85715
▁park	-9.85731
▁zwisk	-9.85732
Je	-9.85733
▁wsow	-9.8576
▁předstajić	-9.85763
▁Dnja	-9.85781
▁prěnich	-9.85848
▁mnohe	-9.85923
wot	-9.85962
▁wuhlada	-9.85977
▁młode	-9.86094
▁žiwjenske	-9.861
▁přewšo	-9.86105
▁sama	-9.86144
▁möchte	-9.86286
▁zdoby	-9.86288
dal	-9.86311
▁Scha	-9.86325
▁hrać	-9.86378
▁Ralbičan	-9.86468
▁mojim	-9.86482
▁podawa	-9.86598
▁jě	-9.86627
roz	-9.86684
▁zastupjerjo	-9.86806
80	-9.8682
▁nóc	-9.86832
▁Peter	-9.86841
mjez	-9.86849
niske	-9.86859
▁słužbu	-9.86928
▁Hans	-9.87021
▁zdaću	-9.87039
▁Jedna	-9.87198
▁Kirche	-9.87206
▁woči	-9.87268
▁Wjes	-9.87302
▁sorbischer	-9.87313
▁statok	-9.87314
▁wopytowarjow	-9.87355
▁takle	-9.87362
fu	-9.87371
▁přeprošeni	-9.87382
▁naprašowa	-9.87382
▁Budar	-9.87443
▁swjedźen	-9.87467
moj	-9.87473
fle	-9.87476
▁stil	-9.87492
▁milion	-9.87518
▁chcemy	-9.87523
Ma	-9.87535
▁zarjada	-9.87554
▁posedźenju	-9.87566
▁prěnjeho	-9.8757
▁farsk	-9.87587
▁dnjach	-9.876
▁nadźija	-9.87611
▁Wulk	-9.87669
▁měšnik	-9.8774
son	-9.87741
▁přizjewi	-9.8775
▁zapis	-9.87834
▁pla	-9.87834
▁padźe	-9.87845
▁zastupjer	-9.8789
istiske	-9.8791
▁zamołwity	-9.87934
▁ludźom	-9.87939
▁reg	-9.88012
▁słužby	-9.88022
▁Haus	-9.88033
▁dźiw	-9.88049
dźo	-9.88064
▁Karl	-9.88241
los	-9.88298
▁Go	-9.88299
▁ródn	-9.88301
▁naposledk	-9.88304
▁redaktor	-9.88304
▁němskeho	-9.88329
▁knjež	-9.88418
▁Zwjazkowe	-9.88443
▁spěwar	-9.88452
▁trenar	-9.88493
▁dźěćace	-9.88494
▁wuńdźe	-9.88519
▁wuči	-9.88527
▁Wasser	-9.88571
pó	-9.88661
enjom	-9.88735
▁doniž	-9.88764
▁Frei	-9.88811
▁kulturnych	-9.88819
sicht	-9.88827
▁njewo	-9.88868
▁symbol	-9.88869
▁křižer	-9.88927
▁Minderheiten	-9.88976
▁woda	-9.89066
▁Reg	-9.89172
stellen	-9.89178
▁sekretar	-9.89209
▁Józef	-9.89235
▁šulow	-9.89243
▁kam	-9.89255
▁zetkanja	-9.89337
▁wustupi	-9.894
▁selbst	-9.8943
59	-9.89435
▁90	-9.89461
▁wikach	-9.89483
rig	-9.89593
▁protest	-9.89614
▁spa	-9.89702
▁22	-9.89769
fahren	-9.89772
▁wotmołwi	-9.89798
▁zahra	-9.89877
old	-9.8988
▁hiba	-9.8991
▁rozšěrj	-9.89994
▁mjezy	-9.90026
▁měni	-9.90075
95	-9.90163
▁formje	-9.90203
mittel	-9.90225
▁spěšn	-9.90296
▁Petr	-9.90318
brauch	-9.90321
45	-9.90331
▁neuen	-9.90352
▁Sto	-9.904
sdorf	-9.90464
▁SN	-9.90493
▁kotrejež	-9.90555
▁dźakown	-9.90561
▁zwischen	-9.90561
▁Eine	-9.90585
dło	-9.90614
zrozumliw	-9.90676
▁Th	-9.90711
▁wšudźe	-9.90748
▁wěriwych	-9.90748
▁staji	-9.90756
▁Smy	-9.90839
▁spi	-9.90858
▁zběra	-9.90863
wei	-9.90865
ton	-9.90874
▁wołtar	-9.90941
▁Marko	-9.90983
▁weitere	-9.90997
▁spočatku	-9.91027
▁dich	-9.91028
▁formu	-9.91059
▁Hand	-9.91086
▁zahrod	-9.91107
▁přeprošuje	-9.91124
▁wjetše	-9.91126
▁ihnen	-9.9113
▁widźa	-9.91228
cker	-9.91237
▁skupinu	-9.91268
▁Biskop	-9.91292
▁njewšědn	-9.91315
▁procesion	-9.9133
▁swojemu	-9.91361
▁Wjel	-9.91383
▁Maćica	-9.91507
▁radźićel	-9.91507
▁wuměnjenja	-9.91522
▁zahori	-9.91529
▁kompo	-9.91538
▁předstajenje	-9.91557
▁starych	-9.91585
▁smědźa	-9.91624
39	-9.91697
▁čehodla	-9.91698
▁holcy	-9.91698
▁pósła	-9.91745
▁južn	-9.91752
▁Łaz	-9.9178
auer	-9.91791
▁zachowa	-9.91849
▁rec	-9.91865
▁interpret	-9.9189
▁150	-9.91912
▁předewzaća	-9.91918
▁doda	-9.91937
▁ihn	-9.91951
▁minjeny	-9.91953
▁ewangelskich	-9.91989
▁dari	-9.92097
▁Serbskej	-9.92186
▁Maria	-9.92264
▁pokročowa	-9.92274
iel	-9.92281
▁cyrkwinski	-9.92311
▁knižn	-9.92314
99	-9.92349
▁leži	-9.92371
stajenje	-9.92381
▁Boža	-9.9239
rnja	-9.92445
▁Deutsch	-9.92456
▁zakaza	-9.92624
▁typ	-9.92658
vo	-9.92659
▁wjesnjanosta	-9.92661
▁Łužicu	-9.92662
▁kleine	-9.92669
ort	-9.92729
wachu	-9.92729
▁hódno	-9.92734
▁přiběra	-9.92767
▁Hen	-9.92824
legen	-9.92853
gestellt	-9.92855
▁2009	-9.92878
▁wjeseli	-9.9288
hel	-9.9291
▁skutkuje	-9.92986
▁předawa	-9.9299
▁mein	-9.93017
▁nazhoni	-9.93049
▁studentow	-9.93148
og	-9.9316
▁měšćan	-9.9316
▁Choćebusk	-9.93189
▁zwoprawdź	-9.93198
▁Wjace	-9.93239
▁Welt	-9.93242
▁bohužel	-9.93244
▁Awtor	-9.93245
▁staršej	-9.93276
▁nadźije	-9.93313
▁naležnosće	-9.93322
▁Braniborskej	-9.93334
▁přistajen	-9.93444
▁Frank	-9.93452
▁pł	-9.93523
▁předsyd	-9.93568
tlich	-9.93576
78	-9.93723
▁Hornjej	-9.93836
▁Arbeits	-9.9384
▁Stat	-9.93843
▁dźěd	-9.93876
jězd	-9.93884
▁Ober	-9.93901
wanje	-9.93904
nicu	-9.9391
▁zakładnej	-9.93912
▁Kur	-9.93938
▁Wojerecach	-9.93961
▁jednoho	-9.93974
▁Žur	-9.93977
29	-9.93993
rkow	-9.94006
▁kommen	-9.94053
njesł	-9.94092
▁drei	-9.94093
▁lubi	-9.94125
▁wobdźěła	-9.94132
▁mustwa	-9.94176
istiski	-9.9421
▁Alfons	-9.94222
▁dźewjeć	-9.94223
▁wurden	-9.94322
▁woswjeći	-9.94419
▁filmow	-9.9442
▁postrow	-9.94454
▁pohlad	-9.94501
▁lětdźesatk	-9.94593
▁mandźelskej	-9.94597
▁Lětsa	-9.94616
▁někak	-9.94618
▁rozrisa	-9.94618
▁rozprawje	-9.94819
▁wikow	-9.94867
▁Čas	-9.94944
▁šuler	-9.94989
gruppe	-9.95012
▁Christian	-9.95013
▁drasće	-9.95016
▁hłownje	-9.95017
▁bydli	-9.95029
▁wuskutk	-9.95031
▁21	-9.95046
▁prezidenta	-9.95055
ckt	-9.95093
▁rozmyslowa	-9.9521
▁wěcy	-9.95259
▁Groß	-9.95273
▁Gre	-9.9528
▁dobyć	-9.95299
▁boha	-9.953
▁instrument	-9.95302
▁Dotal	-9.95323
halten	-9.95326
ven	-9.95327
▁jutrowne	-9.95336
▁prawe	-9.95365
▁jubilar	-9.95608
▁general	-9.95611
▁Štož	-9.95699
pel	-9.95704
nku	-9.9573
llt	-9.95813
▁nakładnistwo	-9.9582
šćinu	-9.95822
log	-9.95964
▁skutkowaše	-9.95966
▁Ad	-9.9597
▁Freund	-9.96008
▁ćerpj	-9.96024
▁wodźe	-9.96033
znać	-9.96068
▁Auch	-9.96132
▁Christ	-9.96176
▁jutrow	-9.962
▁dźěćacy	-9.96212
▁Bamž	-9.96213
▁zhromadźizna	-9.96217
▁hdys	-9.9629
▁2006	-9.96292
▁Grund	-9.96329
Dź	-9.96372
▁Hra	-9.9638
▁schön	-9.96421
▁jednotliwych	-9.96485
▁Recht	-9.96524
leži	-9.96527
88	-9.96575
▁part	-9.96609
▁kandidat	-9.9661
▁Eltern	-9.96611
▁fre	-9.96619
▁Ameri	-9.96667
istow	-9.96703
▁běrow	-9.96709
▁čitar	-9.96716
žar	-9.96749
▁co	-9.96754
křć	-9.96796
▁naša	-9.96809
rie	-9.96845
ex	-9.9687
rěče	-9.96916
▁Móž	-9.97038
▁direkt	-9.97052
▁zrozumi	-9.97074
▁wotrjad	-9.97077
dźenja	-9.97126
▁Samo	-9.97169
21	-9.97208
▁gmejny	-9.97216
▁fest	-9.97228
Serb	-9.97286
▁lětstotku	-9.9731
▁běch	-9.97372
owanych	-9.97385
▁sakski	-9.97408
▁prócowanja	-9.97424
▁tajkim	-9.97448
▁ansambla	-9.97487
bot	-9.9754
▁lětnik	-9.97559
▁swětowej	-9.97601
▁hladajo	-9.97632
▁předstajichu	-9.97694
▁wobkedźbowa	-9.97795
▁Hil	-9.97797
histori	-9.97808
▁zamóže	-9.97808
▁lut	-9.97811
▁srjedźišću	-9.97826
pokoj	-9.97885
▁mějachmy	-9.97931
92	-9.97935
▁kóždym	-9.97962
▁bydla	-9.97974
70	-9.98026
▁dwójce	-9.9803
▁literaturu	-9.98033
▁krajach	-9.98106
▁rěčne	-9.98215
▁hospo	-9.98227
▁sněh	-9.98237
spiel	-9.98266
tin	-9.98303
▁wěru	-9.98346
▁Mod	-9.984
▁termin	-9.98451
▁přepytowan	-9.98454
▁swójbu	-9.98455
▁druhimi	-9.98459
ium	-9.98511
▁spokoj	-9.98522
gang	-9.98536
▁Chrósčan	-9.98645
▁ausge	-9.98645
▁posrědkowa	-9.98695
▁ła	-9.98773
▁sollen	-9.98781
▁wjer	-9.98838
▁wutoru	-9.98851
▁Dalše	-9.98854
▁Budyskeje	-9.98934
▁sprach	-9.98945
přeć	-9.99051
▁Brankačk	-9.99057
▁etwas	-9.99058
▁Prěnje	-9.99059
▁premjer	-9.99072
real	-9.99106
▁žiwe	-9.99142
werk	-9.99154
▁smjerći	-9.99188
ženje	-9.99196
▁Worklecach	-9.99204
▁dawa	-9.99246
▁wotpohlad	-9.99265
▁předmjet	-9.99269
▁wurjadn	-9.99287
gleich	-9.99291
▁dis	-9.9932
▁spe	-9.99353
▁alles	-9.9936
▁inter	-9.9938
jomne	-9.9938
Ć	-9.99385
▁šulskeho	-9.99453
▁hłownej	-9.99469
▁wjacorych	-9.9947
▁Jedyn	-9.99472
▁jewišću	-9.99473
▁Paul	-9.99476
▁poskiće	-9.9948
schau	-9.99542
▁kulturny	-9.99611
▁institut	-9.99616
▁prawy	-9.99634
▁prěnja	-9.9965
nte	-9.99657
▁gmejna	-9.99678
▁wopokaza	-9.99678
▁chorosć	-9.99735
▁Schule	-9.99754
▁spěchowanje	-9.99765
▁Dar	-9.99868
▁njeběchu	-9.99879
uß	-9.99893
▁přesadźi	-9.99893
52	-9.99921
▁přichoda	-9.99923
öl	-9.99938
port	-9.9995
▁wužiwać	-9.99971
▁měšćanske	-10.0002
▁Ei	-10.0004
▁wědomostny	-10.0006
▁organizator	-10.0009
▁putnisk	-10.001
▁nadběh	-10.0014
96	-10.0024
▁dokładnje	-10.0026
▁znamjo	-10.003
▁swjatočnosć	-10.0034
▁blido	-10.0037
▁sobudźěłaćer	-10.004
▁Měrćina	-10.005
▁twórbow	-10.0051
▁dopomnjen	-10.0051
▁nabožne	-10.0051
rski	-10.0054
▁mjeńšiny	-10.0054
bili	-10.0054
22	-10.0067
▁Thomas	-10.0072
▁folklorn	-10.0072
▁Wolfgang	-10.0072
▁wohnjow	-10.0073
▁skupinje	-10.0073
▁skład	-10.0075
▁24	-10.0076
owacych	-10.0077
▁Němcow	-10.0079
ciski	-10.0079
wědomost	-10.0084
▁kongres	-10.0093
bytk	-10.0093
▁Schw	-10.0095
ßen	-10.0099
63	-10.0108
alny	-10.0109
▁andere	-10.011
83	-10.0113
▁wulkeje	-10.0117
▁Lipsk	-10.0118
▁radosć	-10.0118
▁Michała	-10.012
▁Hol	-10.012
▁zajimcy	-10.0125
▁Slepjanske	-10.0133
▁original	-10.0135
▁Předsyda	-10.0135
▁wědomostnik	-10.0138
▁słowjanskich	-10.0139
▁hdźe	-10.0149
▁Gruppe	-10.0151
▁klasy	-10.0152
▁300	-10.0156
tko	-10.0156
budźe	-10.0157
▁słowach	-10.0162
▁jewi	-10.0167
▁skutkow	-10.0168
▁dołhi	-10.0178
▁hudźba	-10.018
▁awtorow	-10.0191
▁Kol	-10.0192
dorf	-10.0195
▁bratr	-10.0195
▁wobrubi	-10.0199
▁Njeje	-10.0202
▁Mal	-10.021
▁pokazać	-10.021
▁wučerja	-10.0212
lenje	-10.0213
Ko	-10.0214
▁wotrězk	-10.022
▁Hornjeje	-10.0221
▁ćěło	-10.0227
▁swětoweje	-10.0227
rp	-10.0228
▁hospodarske	-10.0229
▁medi	-10.023
▁Ty	-10.0236
▁podać	-10.0237
▁Bundes	-10.0242
▁dobrym	-10.0258
▁per	-10.0261
▁ludu	-10.0262
▁domizny	-10.0263
▁kěrluš	-10.0263
▁cyrkwinskeho	-10.0266
čce	-10.0266
weise	-10.0267
▁njebudźe	-10.0273
tiwny	-10.0284
▁zmóžni	-10.0284
▁zadźěwa	-10.0286
90	-10.0299
naprawo	-10.03
▁Łužis	-10.0302
▁zdźerž	-10.0304
▁gibt	-10.0306
▁starobje	-10.0312
▁Čěskeje	-10.032
▁seiner	-10.0322
35	-10.0326
▁zusammen	-10.0327
▁dwurěčne	-10.0328
▁wysoki	-10.0335
▁hesłom	-10.0338
▁Leben	-10.0351
▁ihrer	-10.0353
▁programje	-10.0357
halb	-10.0358
funk	-10.036
ři	-10.0364
ontrol	-10.037
▁Mnozy	-10.037
▁biskopstwa	-10.0373
▁Herrn	-10.0382
▁Seit	-10.0382
▁młodźinski	-10.039
kciju	-10.0392
Do	-10.0399
▁hraja	-10.0404
41	-10.0408
wald	-10.0411
▁Sächsische	-10.0414
▁překwapj	-10.0414
▁přednjese	-10.0414
▁anderen	-10.042
▁'	-10.0423
▁wječork	-10.044
▁zwjazkowy	-10.0456
▁Stiftung	-10.0457
▁wustajeńcu	-10.0458
▁srědki	-10.0459
▁našu	-10.0463
ard	-10.0469
▁wotewrě	-10.0479
▁wobeju	-10.0483
powědź	-10.0484
heim	-10.0486
čanow	-10.0487
ierte	-10.0488
▁dyrbimy	-10.0491
▁Erzieherin	-10.0499
▁KATOLSK	-10.0501
▁POSO	-10.0501
▁Wosebit	-10.0501
▁wutroby	-10.0501
▁slawist	-10.0501
▁čłowjesk	-10.0502
▁jetzt	-10.0504
schreib	-10.0506
bas	-10.0512
▁słyša	-10.052
▁literarne	-10.0521
▁wobzamkny	-10.0523
▁USA	-10.0523
▁Towarstwo	-10.0523
▁wobchadźe	-10.0526
rot	-10.0526
▁Delnjeje	-10.0532
schrift	-10.0545
▁Gerhard	-10.0545
▁jednu	-10.0548
▁sportowe	-10.0549
▁centraln	-10.0553
84	-10.0556
sor	-10.0558
▁wěsće	-10.0561
▁pedagog	-10.0567
▁dóstanje	-10.0571
▁Maćij	-10.0572
▁wučerjo	-10.0577
▁wulkich	-10.058
Ha	-10.0583
▁Bal	-10.0586
▁uniwersiće	-10.0589
▁tehdom	-10.0589
68	-10.059
▁mjezynarodny	-10.0591
31	-10.0596
hornjoserbsk	-10.0598
▁rejwa	-10.0602
▁drastu	-10.0611
▁spraw	-10.0615
▁dann	-10.0617
▁turist	-10.0619
▁že	-10.0622
wid	-10.0623
▁klin	-10.0625
93	-10.0629
Serbske	-10.063
▁najlěpši	-10.0633
▁poswjećen	-10.0633
▁ćežke	-10.0633
▁kajke	-10.0634
▁Als	-10.0636
▁šulach	-10.0637
▁zetkanju	-10.0646
osću	-10.0648
▁stawiznam	-10.0653
▁dopołdnja	-10.0655
▁chlěb	-10.0656
▁pjenježn	-10.0656
▁pohrjeb	-10.0656
▁Snano	-10.0656
▁narodnej	-10.0658
▁poča	-10.066
▁nastupi	-10.0663
▁zarjadowanju	-10.0666
▁towaršnosće	-10.0668
▁słowjan	-10.067
▁župy	-10.0678
▁młodźinu	-10.0678
Mi	-10.0679
▁zakonja	-10.068
▁Dźěći	-10.0682
▁wiki	-10.0683
▁allen	-10.0683
ruh	-10.0684
Waršaw	-10.0692
▁Hel	-10.0692
čenje	-10.0698
socialn	-10.0701
▁23	-10.0701
▁połoženje	-10.0703
▁Wó	-10.0705
▁zakit	-10.0711
▁zwiski	-10.0711
▁reali	-10.0714
▁klóštra	-10.0715
▁gymnazij	-10.0716
▁Landes	-10.0717
sprache	-10.073
njenja	-10.0737
móc	-10.0741
Ch	-10.0742
geben	-10.0743
▁dohlad	-10.0745
▁profesor	-10.0745
▁Or	-10.0747
▁mjenuje	-10.0747
NA	-10.075
▁pokal	-10.0753
▁Angel	-10.0755
▁stata	-10.0758
▁wulkeho	-10.0759
▁hospodar	-10.0762
owarjo	-10.0762
wóln	-10.0763
▁poby	-10.0765
▁Młynk	-10.0767
▁dawno	-10.0768
▁podpisa	-10.0769
▁zjawne	-10.077
dźenje	-10.0771
51	-10.0779
▁narodnym	-10.0782
▁dźěłaćer	-10.0786
▁snadź	-10.079
▁jewišćo	-10.0791
▁sylny	-10.0792
▁kein	-10.0793
▁wuwića	-10.0793
▁Martin	-10.0794
sek	-10.0795
▁mandźelska	-10.08
▁teksty	-10.0801
serbski	-10.0807
SPD	-10.0807
▁hudźbnik	-10.081
▁narodnin	-10.0815
▁Kind	-10.0816
▁wobrazow	-10.0816
▁natwar	-10.0824
▁Wenn	-10.0827
▁27	-10.0828
Mar	-10.0832
▁Pomhaj	-10.0835
▁jenički	-10.0835
▁sollte	-10.084
43	-10.0841
▁přeswědč	-10.0842
▁knjeni	-10.0842
gan	-10.0849
▁wulět	-10.085
tud	-10.0851
wych	-10.0855
▁dopomni	-10.0858
▁kontakt	-10.086
▁statny	-10.0864
▁postaji	-10.0869
▁wšej	-10.087
přijima	-10.0879
▁oficialn	-10.088
▁hosćićel	-10.0881
lěć	-10.0887
▁Bor	-10.0889
▁spěwow	-10.0894
▁hódnoći	-10.0903
▁naspomnjen	-10.0903
▁woznamjenja	-10.0904
▁Byrnjež	-10.0904
▁jeju	-10.0907
▁skutkowanju	-10.091
▁start	-10.0913
ph	-10.092
▁farje	-10.0931
žeše	-10.0933
▁zhromadnym	-10.0945
▁klawěr	-10.0949
▁předsydu	-10.0953
šul	-10.0958
62	-10.096
94	-10.096
▁tworje	-10.0963
▁kupi	-10.0966
▁uniwersity	-10.0972
▁lěpši	-10.0972
▁dobru	-10.0974
▁młodostny	-10.0984
▁takrjec	-10.0995
▁atd	-10.0997
▁njebjes	-10.1003
▁Wort	-10.1005
gabe	-10.1007
▁Wulki	-10.101
▁wodu	-10.1012
▁nakładnistwa	-10.1019
▁pěstowarnje	-10.102
fall	-10.102
rek	-10.1023
▁dźěše	-10.1025
▁rjenje	-10.1027
▁chorhoj	-10.1028
amt	-10.103
plan	-10.103
šćina	-10.1031
▁někajke	-10.1041
▁wobzamknje	-10.1041
▁prosće	-10.1042
▁čitać	-10.1044
▁rys	-10.1045
▁wobchod	-10.1047
▁młodźina	-10.1047
▁Ste	-10.1052
▁bal	-10.1052
▁kralow	-10.1057
▁rozžohnowa	-10.1064
▁Swój	-10.1064
▁lochko	-10.1065
ett	-10.1071
▁pólskej	-10.1072
23	-10.1075
▁wrotar	-10.1077
▁Minister	-10.1077
▁Ći	-10.1078
▁přeswědči	-10.1079
▁kotrymi	-10.108
▁Andr	-10.108
▁Zejler	-10.108
▁projekta	-10.1081
▁Róžeńće	-10.1087
▁Komorow	-10.1088
▁kruće	-10.1088
▁tohole	-10.109
▁dobyćer	-10.1091
▁2011	-10.1092
▁Cyrila	-10.1098
▁Gottes	-10.1107
moc	-10.1109
▁dóńdźe	-10.1112
▁přewrót	-10.1116
▁pło	-10.1116
▁dawk	-10.1117
▁Worklec	-10.1117
97	-10.1119
▁lětstotk	-10.112
▁wud	-10.1121
▁zańdźen	-10.1126
▁wokrjesu	-10.1128
▁znamje	-10.1128
pol	-10.1128
▁historiske	-10.1128
▁hłowne	-10.1129
▁dyrbjeli	-10.1134
▁Reinelt	-10.1134
▁dwór	-10.1134
sprechen	-10.1134
▁45	-10.1136
▁mištr	-10.1137
▁wótr	-10.1139
▁Chrósćic	-10.1144
▁Weg	-10.1151
▁wudaće	-10.1155
bro	-10.1155
▁najwjetši	-10.1157
▁róčnicy	-10.1157
▁spjelni	-10.1157
▁Mnichow	-10.1157
igung	-10.1159
▁Unser	-10.1159
▁Ort	-10.117
▁dokład	-10.1178
▁Del	-10.118
▁Car	-10.1181
▁wukonja	-10.1182
▁hinaše	-10.1182
▁Krawca	-10.1192
▁swójbne	-10.1198
▁Štó	-10.1198
▁nawjaza	-10.1202
▁ersten	-10.1203
▁trěbny	-10.1204
▁Němska	-10.1204
▁Fest	-10.1206
▁knježi	-10.1206
▁tamniši	-10.1207
▁městnach	-10.122
▁kěrchow	-10.1228
▁družin	-10.1228
▁přewodźa	-10.1229
▁jěcha	-10.123
▁Mittel	-10.1231
▁tónle	-10.1238
37	-10.1239
slav	-10.124
▁Nowej	-10.1243
▁Hór	-10.1246
▁jednanja	-10.125
▁Stefan	-10.1251
▁komuna	-10.1257
▁tradicije	-10.1275
▁Georg	-10.1275
▁zapřija	-10.1276
▁Tra	-10.1283
▁Nowa	-10.1284
sak	-10.1287
▁mši	-10.1287
!“	-10.1295
▁mision	-10.1297
▁wjaza	-10.13
gemein	-10.13
před	-10.1311
▁zakoń	-10.1323
▁boku	-10.1323
▁wobmjezowan	-10.1323
▁lětuše	-10.1324
▁wopytowar	-10.1325
▁mjenom	-10.133
▁Jeje	-10.1344
▁němsko	-10.1346
▁hačrunjež	-10.1346
▁sorabist	-10.1347
▁nadźiju	-10.1347
▁rub	-10.1347
kry	-10.135
hłow	-10.1352
▁Gra	-10.1353
1)	-10.1353
▁wohrož	-10.1362
▁srjedźneje	-10.1363
▁baz	-10.1369
86	-10.137
▁najskerje	-10.137
▁zaspěwa	-10.1371
▁Dźě	-10.1371
▁wuměłca	-10.1373
▁wobsteji	-10.1374
▁Rat	-10.1382
▁dźěłaše	-10.1384
▁dopokaza	-10.1387
▁Pětra	-10.1394
ět	-10.1403
kładźe	-10.1404
▁nutřkowne	-10.1409
▁nimaja	-10.1415
▁Oberlausitz	-10.1418
▁próstwu	-10.1418
▁literatura	-10.1419
▁Program	-10.1419
▁stary	-10.1421
▁1992	-10.1429
▁docpěć	-10.1432
▁Teil	-10.1435
▁Róžanta	-10.1435
▁Kindern	-10.1436
▁koncept	-10.1442
▁wokolinje	-10.1442
▁woła	-10.1446
▁Če	-10.1447
▁muža	-10.1451
▁přednošowaše	-10.1455
▁fe	-10.1463
▁Zelen	-10.1466
▁Bürger	-10.1466
▁Tehdy	-10.1467
▁róžk	-10.147
▁Frage	-10.1475
wod	-10.1478
tten	-10.1484
▁njejsym	-10.1491
▁wobstara	-10.1491
▁ruce	-10.1492
niku	-10.1494
▁zhromadny	-10.1497
▁Doma	-10.1497
▁31.	-10.1498
jec	-10.1503
▁narodnosć	-10.1506
▁75	-10.1509
▁gleich	-10.1512
▁tri	-10.1514
▁dóstał	-10.1514
▁Metoda	-10.1515
▁nami	-10.1515
▁Dźak	-10.1515
▁frakcij	-10.1516
üb	-10.1517
▁wšědny	-10.1519
▁Wirth	-10.1523
▁kruch	-10.1524
▁anti	-10.1524
para	-10.1525
72	-10.1526
▁poslednich	-10.1528
wesen	-10.1531
?“	-10.1533
verein	-10.1538
▁třeće	-10.1539
▁einge	-10.154
▁nowiny	-10.1542
▁Załožby	-10.1553
▁wotměje	-10.1553
▁serbsko	-10.1555
▁duchowne	-10.1556
▁dwanaće	-10.1563
▁hodźiny	-10.1564
▁regional	-10.1566
▁Volks	-10.1567
weit	-10.1568
RA	-10.157
kop	-10.1571
tiwne	-10.1577
▁prěnju	-10.1581
▁klas	-10.1582
▁štwórt	-10.1587
▁Vorsitzende	-10.1587
▁druhdźe	-10.1587
▁generacije	-10.1587
▁wosebitosć	-10.1587
▁Bohužel	-10.1588
▁wuruna	-10.1588
▁zhromadź	-10.1592
▁historiski	-10.1596
64	-10.1597
▁wobydlerjo	-10.16
▁dźěla	-10.1609
▁kancler	-10.1612
▁gehört	-10.1612
▁župa	-10.1612
▁wopomina	-10.1614
▁podobne	-10.1614
▁dafür	-10.1615
▁Frau	-10.1617
▁Drježdźansko	-10.162
mjeń	-10.1621
▁swj	-10.1622
▁třo	-10.1635
▁wotpowědne	-10.1635
▁spomóž	-10.1636
▁fararjom	-10.1637
▁hić	-10.164
▁wjesela	-10.1641
▁medijow	-10.1643
24	-10.1644
▁Njedźelu	-10.1661
▁kilometrow	-10.1672
▁Plan	-10.1672
▁procent	-10.1674
▁Region	-10.1674
▁fal	-10.1679
▁dary	-10.1679
hin	-10.1684
▁tradiciju	-10.1686
▁přisłušn	-10.1686
60	-10.1698
fass	-10.1701
rskich	-10.1706
▁pjera	-10.1706
▁nochce	-10.1708
▁spožči	-10.1708
▁Geschichte	-10.171
▁Tuchwilu	-10.171
▁Słowjan	-10.171
▁jězdźi	-10.171
▁kónčinach	-10.1717
▁fota	-10.172
▁rěčow	-10.172
▁Jedn	-10.1724
▁Mitglieder	-10.1732
čanski	-10.1733
▁dlěje	-10.1735
▁dźělu	-10.1739
▁jědźe	-10.1739
▁katolskeje	-10.1742
Ž	-10.1746
▁nastupa	-10.1747
▁lieb	-10.1747
▁seinen	-10.1752
▁wabi	-10.1754
▁Kamjencu	-10.1764
▁2004	-10.1768
▁Wojerec	-10.1774
pek	-10.1786
▁hornjo	-10.1786
▁časopisa	-10.1788
▁nastać	-10.1793
čko	-10.1794
▁přičiny	-10.1802
EN	-10.1808
▁chodźi	-10.181
▁kelko	-10.181
▁beim	-10.1811
79	-10.1812
▁foto	-10.1816
▁wěrje	-10.1816
prě	-10.1817
▁wuměłc	-10.1819
▁titl	-10.1825
▁ewangelski	-10.1829
▁Hačrunjež	-10.1835
▁tróšku	-10.1835
▁Smolerjec	-10.1836
firma	-10.1837
laub	-10.1839
▁spad	-10.1849
▁besondere	-10.186
▁přewiny	-10.1863
▁zapoda	-10.1864
▁socialny	-10.1873
77	-10.1878
▁katolski	-10.1878
▁Wojerecy	-10.1879
▁smjerće	-10.1879
keit	-10.1883
▁sotra	-10.1885
▁měsačn	-10.1885
▁nabožny	-10.1885
kraj	-10.1891
▁zbudźi	-10.1892
▁hus	-10.1897
▁Lubin	-10.19
mina	-10.1901
▁tro	-10.1906
▁wupućowa	-10.191
▁kommt	-10.1913
Róž	-10.1914
▁putnik	-10.1917
▁kaz	-10.1921
wjaza	-10.1926
▁dušepastyr	-10.1931
bat	-10.1934
▁Nowaka	-10.1953
▁ćežki	-10.1961
▁wusměrj	-10.1963
▁pohnu	-10.1965
▁zrozumjen	-10.1966
▁městnow	-10.1967
67	-10.1967
▁wědźa	-10.1976
▁saha	-10.1976
▁Chryst	-10.1981
▁wosadach	-10.1982
▁Auto	-10.1984
▁verschiedene	-10.1986
▁Přichodn	-10.1986
▁dołhe	-10.1988
▁předewzaće	-10.1991
07	-10.1994
61	-10.1995
▁ste	-10.1997
▁Rady	-10.2005
▁koło	-10.2007
▁namakać	-10.2011
▁zbóžn	-10.2011
▁serbskemu	-10.2012
▁Někotre	-10.2012
▁serbšćina	-10.2012
▁For	-10.2013
▁wobjedna	-10.2015
▁Smochćicach	-10.2015
▁Božim	-10.2016
▁přinoški	-10.2026
▁duchownych	-10.2027
▁Swjaty	-10.2031
▁chórow	-10.2034
▁ryb	-10.2034
▁europske	-10.2034
▁policija	-10.2038
▁kulturje	-10.2039
▁Ćišinskeho	-10.2043
▁Lau	-10.2045
▁Förderung	-10.2045
▁swětło	-10.2057
▁Berlina	-10.2058
▁drasty	-10.2063
▁woběmaj	-10.2064
▁cil	-10.207
▁wutwar	-10.2071
▁pólskich	-10.2073
▁Branibor	-10.2076
tum	-10.2077
▁zapłać	-10.2078
▁rjek	-10.2079
▁swjate	-10.208
bjesad	-10.2082
▁přichodnje	-10.2085
▁zastojnstwo	-10.2088
▁slědźenja	-10.209
praji	-10.2091
storči	-10.2091
▁Měr	-10.2097
▁Mari	-10.2099
▁měri	-10.21
▁dobrej	-10.2104
▁einmal	-10.2111
wobraz	-10.2111
Kukowje	-10.2113
▁tuchwiln	-10.2114
▁słucha	-10.2114
▁Dorf	-10.2115
▁Dźiw	-10.2116
▁přewróće	-10.214
▁rozšěri	-10.214
▁připowědźi	-10.214
▁Interessen	-10.2146
▁ćeže	-10.2149
▁spóznać	-10.2161
Die	-10.2165
▁nowinar	-10.2165
▁šansu	-10.2166
▁Jesus	-10.2166
punkt	-10.2168
▁wysokej	-10.2168
podobnje	-10.2174
▁zaklinča	-10.2178
▁zešiwk	-10.2191
98	-10.2193
▁Fried	-10.2193
▁dó	-10.2197
▁Anton	-10.22
▁Njebjelčic	-10.2201
rabi	-10.2201
pósła	-10.2211
▁wzda	-10.2213
▁oratorij	-10.2217
▁lěpše	-10.2217
▁poezije	-10.2217
▁kromje	-10.2218
▁CD	-10.222
76	-10.2227
▁załožby	-10.2231
lon	-10.2238
▁přeprošenje	-10.2243
66	-10.2244
▁wobsyd	-10.2244
▁sondern	-10.2245
nahme	-10.2246
▁Wahl	-10.2247
ojc	-10.2258
schule	-10.2261
▁žiwa	-10.2266
▁mějach	-10.2268
▁sächsische	-10.227
▁přitomnych	-10.227
▁Wornar	-10.227
▁politiki	-10.227
bert	-10.2274
▁57	-10.2275
▁Delnj	-10.2276
▁njemóžeše	-10.2287
▁Božeho	-10.2292
▁swjatočn	-10.2293
▁zakónčenj	-10.2296
▁Sobotu	-10.2296
▁zmylk	-10.2297
▁pozadk	-10.2322
▁słowami	-10.2322
▁Jezus	-10.2323
▁Wšitke	-10.2323
liwosć	-10.2324
▁San	-10.233
▁jutrowny	-10.2333
▁njewot	-10.2334
▁zetkawa	-10.2341
kubła	-10.2343
▁wobhla	-10.2343
▁fra	-10.2343
▁rozmołwy	-10.2348
▁Delnjoserb	-10.2349
▁pěsnje	-10.2349
▁sorbisch	-10.2353
▁mło	-10.2354
▁zajimawy	-10.2355
kauf	-10.2356
▁Michałskej	-10.2356
▁wšědne	-10.2359
▁Ruskej	-10.2361
▁tehdyši	-10.2364
▁hodowny	-10.2365
▁zwěsćić	-10.2367
▁Mětšk	-10.2375
▁Žitaw	-10.2375
82	-10.2379
▁wudawk	-10.2384
▁złoži	-10.2384
▁swójbow	-10.2385
▁geht	-10.2388
organizaci	-10.2388
▁tamniš	-10.2391
▁sejmje	-10.2392
fon	-10.2392
▁Pan	-10.2396
řa	-10.2396
▁připóznaće	-10.24
▁tradicionaln	-10.2401
▁wujedna	-10.2401
▁nazymu	-10.2402
▁dworje	-10.2402
melodi	-10.2402
wotlěwa	-10.2405
▁2000	-10.2405
27	-10.2425
▁wuměnje	-10.2425
▁Domowinje	-10.2428
▁změny	-10.2429
▁krajny	-10.2431
▁cyłu	-10.2433
bit	-10.2443
▁stanje	-10.2445
boh	-10.2445
▁Gro	-10.2454
▁intensiwn	-10.2454
▁ličbu	-10.2454
▁internet	-10.2455
▁regiona	-10.2456
▁Šunow	-10.2456
▁Katolski	-10.2456
▁dobra	-10.2461
▁1993	-10.2465
witz	-10.2469
▁sylne	-10.2471
▁tehdyše	-10.2472
47	-10.2476
▁diskusiji	-10.2481
▁podpěrowa	-10.2481
lubje	-10.249
▁běchmy	-10.2492
▁ludźimi	-10.2495
setzen	-10.2502
▁natwarje	-10.2503
▁Čech	-10.2503
▁Jakuba	-10.2504
▁Gerat	-10.2507
▁literaturje	-10.2508
▁powita	-10.2509
▁poslednim	-10.2511
▁wobdźělnikow	-10.2512
▁wrotow	-10.2514
49	-10.2516
▁cyłym	-10.2523
▁wopraw	-10.2524
▁rěkaše	-10.2526
▁dobyće	-10.253
▁rěc	-10.253
▁wosobinsce	-10.2534
▁wotewri	-10.2535
▁studenća	-10.2535
▁zmuži	-10.2535
▁wysoko	-10.2536
▁mjenowan	-10.2536
▁zanjese	-10.2538
▁nastork	-10.2538
dospołn	-10.2541
wanja	-10.2547
matik	-10.2549
▁Jeli	-10.2556
europsk	-10.2557
▁wuběrka	-10.2557
▁statt	-10.2558
▁zemrěł	-10.256
▁Zukunft	-10.2561
▁Lipsčan	-10.2563
▁zwjazane	-10.2563
▁křesćanow	-10.2564
▁pokład	-10.2566
▁němskeje	-10.2566
▁beiden	-10.2574
▁hódne	-10.2578
▁Marije	-10.258
▁Brandenburg	-10.2588
▁słušeja	-10.2588
▁Stanisław	-10.2588
▁kermuš	-10.2588
▁Buch	-10.2592
▁model	-10.2596
▁wašnju	-10.2599
▁wučinja	-10.2608
owanski	-10.2608
▁korč	-10.2608
▁poradźiło	-10.2611
▁wuspěšnje	-10.2615
▁Andreas	-10.2615
▁słyšeć	-10.2615
▁nakładnistwje	-10.2616
▁přišoł	-10.2616
▁Beispiel	-10.2616
81	-10.2621
▁hast	-10.2623
▁prócowar	-10.2626
▁wostać	-10.2628
hand	-10.2632
▁přewažnje	-10.2642
▁teritorij	-10.2642
▁krótke	-10.2642
▁Tajke	-10.2643
▁sudnistwo	-10.267
▁serbskorěčn	-10.2671
kotremuž	-10.2673
▁Město	-10.2677
▁reje	-10.2677
▁Załožb	-10.2681
mysli	-10.2684
▁Komm	-10.2686
▁Radworskej	-10.2686
▁zranjen	-10.2692
▁slub	-10.2693
▁Bildungs	-10.2693
▁lětomaj	-10.2696
▁Helmut	-10.2697
▁pječa	-10.2703
▁wučbu	-10.2708
▁ludowych	-10.2711
▁awta	-10.2712
▁dźěłowych	-10.2715
▁wokoliny	-10.2724
▁wutworjenj	-10.2724
▁muži	-10.2725
łoži	-10.2729
▁Bas	-10.2732
▁sudnik	-10.2736
▁alte	-10.2738
▁Grundlage	-10.274
▁wuwiću	-10.2741
▁Jar	-10.2743
▁powołanje	-10.2747
▁element	-10.2752
▁entsprechend	-10.2752
▁tajku	-10.2753
▁swjatk	-10.2753
zig	-10.2756
▁erste	-10.2759
▁słód	-10.2768
▁čitarja	-10.2773
▁aspekt	-10.2779
▁wosrjedź	-10.2779
FDP	-10.278
Pře	-10.2781
▁měšćanski	-10.2786
▁mni	-10.2787
▁Južn	-10.2787
▁małym	-10.2792
▁wjedźeše	-10.2795
▁neu	-10.2796
▁Bro	-10.2805
▁Ralbicy	-10.2806
▁Mutter	-10.2807
▁přisłuša	-10.2809
▁ple	-10.2812
ciske	-10.2814
▁awtora	-10.2817
▁Ende	-10.2821
▁přeće	-10.2823
▁wosobow	-10.2823
▁stawa	-10.2825
▁přichodnych	-10.2827
▁zastupi	-10.2828
▁wobstatk	-10.2832
▁přitomni	-10.2834
ring	-10.2835
▁rozłoži	-10.2839
▁reforma	-10.2843
▁směra	-10.2847
▁Alle	-10.285
▁lóšt	-10.2851
▁Njebjelčicach	-10.2852
▁Mamy	-10.2855
owanske	-10.2856
▁seit	-10.2861
west	-10.2866
▁pomocy	-10.2877
▁naćisk	-10.2877
▁planowane	-10.288
▁Schulen	-10.2882
▁narodniny	-10.2888
▁ministerski	-10.2889
myslu	-10.2889
▁japoštoł	-10.289
▁unserer	-10.2894
▁běha	-10.2895
▁Tři	-10.2895
▁dalšimi	-10.2898
▁wěrnosć	-10.29
▁Ralbicach	-10.29
▁cit	-10.2901
▁Wulke	-10.2904
liwy	-10.2905
▁Angebot	-10.2918
▁Róžeńčan	-10.2918
▁Sakska	-10.2918
▁swojo	-10.292
▁kotry	-10.2926
▁dožiwjenja	-10.2926
▁wočakuje	-10.2928
▁bože	-10.2928
▁druheje	-10.2931
▁napisał	-10.2941
▁wobjed	-10.2941
▁nětk	-10.2945
▁potrjecheny	-10.2945
▁Čehodla	-10.2945
▁adwentn	-10.2947
▁wuwjedźe	-10.2948
istik	-10.2948
▁Zajimcy	-10.2954
nalěwo	-10.2956
hält	-10.2958
▁chcychu	-10.296
▁stało	-10.2967
▁Bautzener	-10.297
▁wuswobodźe	-10.2974
▁dialog	-10.2974
▁pruwowan	-10.2974
▁spokojom	-10.2981
▁Kamjensk	-10.2985
▁towaršnosć	-10.299
▁česći	-10.2993
ände	-10.2994
tragen	-10.2996
Studi	-10.2999
▁Swjat	-10.2999
▁konflikt	-10.3002
▁rukopis	-10.3002
▁wopyće	-10.3002
▁wudoby	-10.3002
▁steht	-10.3003
Sprachzentrum	-10.3003
▁krok	-10.3004
reg	-10.3011
▁předstajenja	-10.3016
▁zdźěła	-10.3023
schlossen	-10.303
▁hłuboko	-10.303
▁delnjoserbski	-10.303
▁swjećeše	-10.3031
fel	-10.3032
▁Robert	-10.3033
▁temje	-10.3036
Serbski	-10.3039
▁lubosće	-10.3041
▁möglich	-10.3042
iger	-10.3043
▁rukow	-10.3046
▁Marija	-10.3047
▁konnte	-10.3052
▁sćě	-10.3055
▁institucije	-10.3058
▁zhromadźizny	-10.3058
▁ZSW	-10.3058
▁žonow	-10.3058
▁Salow	-10.3068
▁horje	-10.3069
narod	-10.3071
▁Nimal	-10.3078
▁narodnu	-10.3078
owarjow	-10.3086
▁zwuraznj	-10.3086
▁domiznu	-10.3086
setzung	-10.3087
▁pśi	-10.3087
▁wuchodn	-10.3088
▁měnjenja	-10.3089
▁předsydy	-10.3092
▁ćim	-10.3095
▁Njebjelčansk	-10.3095
▁žoł	-10.3101
46	-10.3101
▁Ludowe	-10.3113
▁Clemens	-10.3115
▁ležownosć	-10.3115
▁orchester	-10.3115
▁Frencl	-10.3115
▁lětdźesatki	-10.3118
▁jěd	-10.3119
▁zawostaji	-10.312
▁Har	-10.312
feld	-10.3126
▁Lausitzer	-10.3136
▁dźěłarni	-10.3139
▁małych	-10.314
▁hesło	-10.3141
▁pater	-10.3142
▁lubo	-10.3142
▁dirigent	-10.3143
▁stołp	-10.3145
▁najbóle	-10.3145
▁septembr	-10.3146
▁cuzy	-10.3154
▁hospodarski	-10.3155
▁powědaše	-10.3162
▁něhdyšej	-10.3163
▁nuzn	-10.3167
chěž	-10.3172
▁telefon	-10.3172
▁wobsteja	-10.3173
▁Form	-10.3178
▁Zejlerja	-10.3181
▁spisowaćelow	-10.3182
▁Kraj	-10.3182
▁jědź	-10.3186
tiski	-10.3187
▁tajkeho	-10.3192
hnje	-10.3197
▁situacija	-10.32
▁basnjow	-10.3201
▁Hier	-10.3203
▁padny	-10.3204
▁Spěwa	-10.3204
▁móžny	-10.3205
▁1991	-10.3208
▁łužisk	-10.3209
▁bjezdwěla	-10.3229
▁Dalši	-10.3229
89	-10.3234
▁křesćanske	-10.3236
74	-10.3243
▁wjetšina	-10.3257
winowa	-10.3257
▁swobodne	-10.3258
▁gremij	-10.3258
▁nadrobn	-10.3258
▁wosadu	-10.3258
▁woprawdźitosć	-10.3258
▁Kulowje	-10.3261
▁Regional	-10.3272
stajił	-10.328
▁polěpš	-10.3283
▁2007	-10.3295
▁domjace	-10.3297
▁naspomni	-10.3301
hdy	-10.3308
▁Lang	-10.331
▁twarski	-10.3312
▁njedźela	-10.3314
▁tajka	-10.3319
▁wosobinske	-10.3321
▁zestaja	-10.3321
zběra	-10.3328
dler	-10.3329
▁dobje	-10.3331
▁lajsk	-10.3335
łama	-10.3338
▁wosadnych	-10.3342
▁rozmołwja	-10.3345
▁jedoch	-10.3349
▁talent	-10.3349
▁krute	-10.3361
▁KP	-10.3368
▁jednotliwe	-10.3369
▁swěrn	-10.337
▁zurück	-10.3374
▁zběrki	-10.3374
wirtschaft	-10.3375
▁skutkować	-10.3378
▁Prahi	-10.3384
▁čěskich	-10.3386
▁čěskej	-10.3387
Wjesel	-10.3388
▁njedźel	-10.3391
▁Haupt	-10.34
▁TCM	-10.3403
▁dóšło	-10.3403
▁dlěši	-10.3403
▁kři	-10.3404
▁změja	-10.3405
▁Aber	-10.3416
▁Němcy	-10.3416
sije	-10.3416
▁krótki	-10.3425
chodźe	-10.3431
▁institucijow	-10.3433
▁žurnalist	-10.3433
stein	-10.344
▁dožiwić	-10.344
fried	-10.3442
ženy	-10.3454
▁teksta	-10.3455
wic	-10.3457
▁55	-10.3461
▁Druhe	-10.3465
▁žort	-10.3466
▁kusk	-10.3466
ńcu	-10.3469
▁syna	-10.3471
▁zjawnosć	-10.3472
stadt	-10.3472
▁starosće	-10.3473
▁ministerstwo	-10.3481
owymi	-10.3481
▁Alt	-10.3481
▁wuchodnej	-10.3484
▁wušła	-10.3488
▁weil	-10.3492
▁politiku	-10.3492
▁sčini	-10.3493
▁waš	-10.3509
▁znajomosć	-10.3521
▁mjezsobn	-10.3521
▁hromad	-10.353
▁zjawnje	-10.3531
▁dźensniši	-10.3533
träge	-10.3547
▁fil	-10.3549
▁situaciju	-10.3551
▁ličby	-10.3551
▁smjertn	-10.3551
▁nun	-10.3554
▁pokiw	-10.3561
69	-10.3562
▁wuznamjenje	-10.3563
▁wukubłanje	-10.3563
▁1995	-10.3565
▁hłosow	-10.3569
hlej	-10.3569
▁njehodźi	-10.357
▁Ur	-10.3572
łoženje	-10.3579
▁słušeše	-10.3581
▁Přetož	-10.3581
▁skutkował	-10.3583
▁Dort	-10.3585
▁porěča	-10.3585
▁einige	-10.3585
▁namakamy	-10.3588
▁Prof	-10.359
▁wobě	-10.3592
ität	-10.3593
▁Herz	-10.3596
▁Sport	-10.3602
▁prošu	-10.3603
▁32	-10.3605
▁zmysł	-10.3606
▁domiznje	-10.3611
▁moderne	-10.3614
▁starym	-10.3621
▁gymnaziju	-10.3629
04	-10.3631
▁zwjazkowe	-10.3637
▁moja	-10.364
▁Israel	-10.364
▁besonders	-10.364
▁winowatosć	-10.364
▁uniwer	-10.364
▁ilustr	-10.364
▁Hamburg	-10.364
▁drastow	-10.3641
▁formy	-10.3644
▁Běłej	-10.3645
▁Jich	-10.3648
▁dožiwjenje	-10.3654
▁pismo	-10.3655
arme	-10.366
▁brun	-10.3664
▁wupra	-10.3664
▁hatten	-10.3667
▁rěčeše	-10.3668
▁zwuk	-10.3668
▁Pančic	-10.367
▁koncerće	-10.367
▁Škoda	-10.3671
▁dopózna	-10.3671
▁niwow	-10.3671
▁vier	-10.3674
▁móžu	-10.3675
▁abge	-10.368
▁2003	-10.3681
▁1994	-10.3682
▁wobkruć	-10.3683
łožene	-10.3689
▁bro	-10.3691
čanskej	-10.3692
▁katolskej	-10.3694
▁bohate	-10.3694
isiert	-10.3696
▁Někotři	-10.3701
▁njedosaha	-10.3701
▁jeničke	-10.3701
▁žórło	-10.3701
▁tworićel	-10.3701
▁přiklesk	-10.3701
▁ryzy	-10.3701
▁diskusije	-10.3701
▁přihladowarjow	-10.3705
▁wuslědki	-10.3709
▁Lubij	-10.371
▁přewostaji	-10.3722
▁wosadny	-10.3723
skosć	-10.3724
▁cyłeho	-10.3725
mark	-10.3726
▁Chrósćicy	-10.3727
▁blida	-10.3731
▁Abo	-10.374
▁65	-10.3751
▁Chróšćanskej	-10.3753
▁cyrkwinskim	-10.3756
▁skoro	-10.3757
▁Bild	-10.3758
▁poswjeći	-10.3761
▁rozmołwa	-10.3761
▁wutrobu	-10.3761
▁chwile	-10.3761
▁Tele	-10.3764
4)	-10.3769
▁pohon	-10.3769
▁njeboh	-10.3773
Ho	-10.3777
▁1948	-10.3778
▁přewzać	-10.379
▁kubłanja	-10.379
▁ludnosće	-10.379
Składnostnje	-10.3791
▁cyrkwjow	-10.3791
▁Kónc	-10.3792
▁štyrjo	-10.3795
▁bratrow	-10.3797
▁wobdźělić	-10.3797
▁Lěto	-10.3801
▁Europa	-10.3804
wjesć	-10.3817
▁Zhorjelcu	-10.3818
▁kóždu	-10.3822
▁zdokonj	-10.3822
▁docyła	-10.3824
▁srědkow	-10.3827
▁schwali	-10.3827
▁Herman	-10.3829
agentur	-10.3838
▁ministerstwa	-10.3839
sija	-10.3843
▁Zajim	-10.3845
▁rysowan	-10.3845
▁Hladajo	-10.3853
▁štwórć	-10.3853
▁měšćanosta	-10.3853
verband	-10.3853
▁njemějach	-10.3853
▁ideje	-10.3853
▁kmanosć	-10.3855
Jan	-10.3857
▁junge	-10.3859
▁zasadźi	-10.386
▁čěskim	-10.3875
▁słužba	-10.3879
▁rozprawješe	-10.3882
▁Podstupim	-10.3883
▁diplom	-10.3883
▁swědk	-10.3888
▁Pri	-10.3889
▁hłu	-10.3893
▁znatych	-10.3894
▁Manfred	-10.3914
▁Veranstaltung	-10.3914
▁Berg	-10.3914
▁europskich	-10.3914
▁Skónčnje	-10.3914
▁naprawy	-10.3914
▁nationale	-10.3914
Ćišinski	-10.3915
▁(03	-10.3915
▁Bis	-10.3916
metod	-10.3918
▁Swjateho	-10.3923
▁Radworja	-10.3926
▁pytać	-10.3929
▁pokazuja	-10.3945
▁spočatnje	-10.3945
▁kniharni	-10.3946
▁spožč	-10.3949
lagen	-10.395
▁stawizna	-10.3953
▁jutry	-10.3953
▁Problem	-10.3953
▁stupi	-10.3963
▁čisłom	-10.3964
treten	-10.3966
▁wubědźowanja	-10.3967
Při	-10.3972
▁nawróći	-10.3976
▁Vater	-10.3976
▁pobožn	-10.3977
▁eigene	-10.398
▁wjesć	-10.3984
▁gratu	-10.399
▁ludoweje	-10.3992
▁gehen	-10.3993
▁wucho	-10.3993
▁zhromadneho	-10.3999
▁Cyłkownje	-10.4003
▁radu	-10.4006
▁woteběra	-10.4007
▁wuwzać	-10.4007
▁namołwi	-10.4007
▁wujasni	-10.4007
▁wonkowne	-10.4008
▁zrěčenje	-10.4008
▁Grün	-10.4009
▁přewzał	-10.4009
▁kóždej	-10.401
cki	-10.4018
▁wobhladać	-10.4027
▁zwjazkowym	-10.4029
wobroć	-10.4036
▁lěw	-10.4037
gesetz	-10.4044
▁připad	-10.4045
▁Tro	-10.4046
▁sylnje	-10.4048
▁1998	-10.4049
▁wojakow	-10.405
▁hłós	-10.4057
▁pisać	-10.4061
▁Katolske	-10.4062
▁namakał	-10.4065
▁Podobn	-10.4065
▁připosłucha	-10.4067
▁ruku	-10.4068
▁dazu	-10.4069
▁Möglichkeit	-10.4069
▁Spiel	-10.4073
▁lubu	-10.4075
łožk	-10.4081
▁Dem	-10.4087
▁dźensnišim	-10.4091
▁Ob	-10.4091
üsse	-10.4093
dwor	-10.4095
▁nadpad	-10.41
▁situaciji	-10.4101
▁Ludwig	-10.4101
▁pobrachowa	-10.4101
▁swjedźenje	-10.4107
▁Swoje	-10.4108
▁400	-10.4113
▁Sakske	-10.4118
▁wosud	-10.4125
▁kontakty	-10.4129
▁Awgust	-10.4132
▁Müller	-10.4132
▁ekumenisk	-10.4132
▁Andricki	-10.4132
▁organizacije	-10.4134
▁1946	-10.4142
▁mjenow	-10.4146
▁Wažn	-10.4147
▁podźakowa	-10.4164
▁Bayer	-10.4166
▁Dźeń	-10.4167
ologije	-10.417
ojty	-10.4174
▁hrodźe	-10.4175
▁wobrot	-10.4182
▁projekty	-10.4182
▁mša	-10.4185
źě	-10.4188
▁Kap	-10.4194
schein	-10.4196
▁drasta	-10.4198
▁kedźb	-10.4198
▁zhlado	-10.42
▁cyrkwinskich	-10.4205
▁kulturneje	-10.4206
▁zwosta	-10.4207
▁sło	-10.4211
▁prědowanju	-10.4217
▁Kurt	-10.4218
▁wuwić	-10.4218
▁unser	-10.4224
jebać	-10.4227
▁přemyslowa	-10.4227
▁tradicioneln	-10.4227
▁referent	-10.4227
▁Tekst	-10.4228
▁Francoskej	-10.4228
▁sagte	-10.4229
▁normal	-10.4229
▁etnisk	-10.4232
▁přewjesć	-10.4236
▁zahajenj	-10.4238
▁přezjedn	-10.4239
▁swójskim	-10.4243
▁traje	-10.4244
▁tworjenja	-10.4245
▁tamnišej	-10.4246
56	-10.4246
▁čitaše	-10.4248
▁parlamenta	-10.425
▁hibanja	-10.4254
prawa	-10.4256
▁dožiwił	-10.4259
▁Najprjedy	-10.4259
▁Josef	-10.4259
▁Unterricht	-10.4259
▁dnjej	-10.4261
▁aller	-10.427
ellen	-10.4272
pólski	-10.4274
▁dypkow	-10.428
▁Vertreter	-10.4291
▁orchestr	-10.4291
▁katedr	-10.4291
▁kubłanske	-10.4295
▁Sakski	-10.4298
▁započatk	-10.4298
▁respekt	-10.43
▁serbstwo	-10.4302
stajenja	-10.4303
▁słužbje	-10.4304
▁dopokaz	-10.4307
▁pólskim	-10.4309
▁fachowc	-10.4309
▁Europsk	-10.4315
owachmy	-10.4317
▁Hei	-10.4322
▁personal	-10.4323
▁rozmołwu	-10.4323
▁wosadni	-10.4323
▁ohne	-10.4325
▁zemje	-10.4329
▁wobdźělichu	-10.4332
▁bliže	-10.4336
▁putnikow	-10.4337
▁anderem	-10.4337
▁jewja	-10.4344
▁Lehr	-10.435
▁teho	-10.4352
▁Cyrkej	-10.4355
▁Völkel	-10.4355
▁filozof	-10.4355
▁přizamkny	-10.4355
▁škody	-10.4355
▁wědźeć	-10.4355
▁wulce	-10.4356
▁wusko	-10.4361
čow	-10.4365
▁młoda	-10.4366
▁gern	-10.4375
▁sollten	-10.4378
▁wojersk	-10.4378
▁wnučk	-10.4381
▁swětowe	-10.4381
▁hrajerjo	-10.4385
▁kubłanski	-10.4386
▁swobodny	-10.4387
▁lektor	-10.4387
▁tydźenje	-10.4389
▁zjězd	-10.4404
▁rejwansk	-10.4407
3)	-10.4412
▁třomi	-10.4412
▁słowow	-10.4415
▁přichwata	-10.442
▁dźowka	-10.442
▁Budyske	-10.4421
▁wzajomn	-10.4423
▁Ent	-10.4439
▁přećiw	-10.4442
▁werde	-10.4442
▁Zastup	-10.4446
▁poskića	-10.4453
▁Něhdy	-10.4453
▁zjawny	-10.4455
▁kubłanišća	-10.4456
▁2008	-10.4458
▁wěriwi	-10.4466
▁wobwod	-10.4467
▁łužiske	-10.4471
▁Wolf	-10.4473
▁projektow	-10.4484
▁prawidłownje	-10.4485
▁Dresden	-10.4485
(	-10.4485
▁Młodźi	-10.4485
▁mol	-10.4486
▁hotel	-10.4487
▁Kreis	-10.449
▁medije	-10.45
▁gmejns	-10.4516
▁krajnym	-10.4516
▁Slepom	-10.4517
▁Andrickeho	-10.4517
▁křesćenjo	-10.4517
▁SED	-10.4517
▁zhotowi	-10.4517
▁diskusija	-10.4518
▁dabei	-10.4519
▁prědar	-10.4521
▁ligi	-10.4522
▁Zhromadnje	-10.4527
▁eng	-10.453
van	-10.453
ndlich	-10.4531
▁Hanka	-10.4534
▁wuknje	-10.4535
▁Rakec	-10.4543
mmt	-10.4547
▁Romje	-10.4548
▁argument	-10.455
▁kritizowa	-10.455
▁koparski	-10.4553
▁zjednoćenstwa	-10.4559
▁kónčiny	-10.4559
▁podawki	-10.4572
▁wubědźowanje	-10.4579
▁cyrkwju	-10.4583
▁njeměješe	-10.4583
▁miliard	-10.4583
braniborsk	-10.4583
▁přichodny	-10.4586
▁darauf	-10.4587
▁starać	-10.46
▁wjesneho	-10.4602
wliw	-10.4616
▁energ	-10.4616
▁přikaz	-10.4616
▁mjenowaše	-10.4619
▁klóštrje	-10.4623
▁Reich	-10.4624
iv	-10.4624
▁narodźił	-10.463
▁činił	-10.463
▁hranicy	-10.4635
▁wotbłyšć	-10.4649
▁namołwje	-10.4649
▁poselstwo	-10.4649
▁Druhi	-10.4649
▁runjewon	-10.465
▁Weiter	-10.465
▁wuprajenja	-10.4651
▁sćelak	-10.4653
dienst	-10.4655
▁meji	-10.4658
▁Bereich	-10.4665
kret	-10.4668
▁cyło	-10.4671
stelle	-10.4675
▁Towarstwa	-10.4682
▁dobrowóln	-10.4683
▁zahorje	-10.4685
▁naruna	-10.4694
▁klar	-10.4702
▁Mon	-10.4705
kurs	-10.4709
▁www	-10.471
▁Jerusalem	-10.4716
dnjow	-10.4719
▁přišli	-10.472
▁změna	-10.4721
▁Wšo	-10.4732
słowjans	-10.4734
▁IV	-10.4735
▁Slepjanski	-10.4737
NE	-10.4737
Ně	-10.4737
▁Hdźe	-10.4737
06	-10.474
91	-10.4742
pyta	-10.4748
▁předwidźane	-10.4749
▁rostlin	-10.475
▁unije	-10.4751
▁Köln	-10.4756
▁žadaše	-10.4757
▁krótkim	-10.4758
▁optim	-10.4764
front	-10.4772
▁Hause	-10.4776
▁gegen	-10.4776
geführt	-10.4783
▁Jürgen	-10.4783
▁Dub	-10.4786
▁žanu	-10.4787
▁lize	-10.48
owemu	-10.4804
okrati	-10.4814
▁Domowinu	-10.4816
▁čłowječ	-10.4816
▁rěčespyt	-10.4817
▁wopačn	-10.4817
▁kajki	-10.4817
▁Nedo	-10.4818
▁mnohim	-10.4822
▁jejka	-10.4823
▁wuznać	-10.4824
▁sobustawow	-10.4824
▁1997	-10.483
jědu	-10.4831
▁Zły	-10.4836
▁identi	-10.4838
▁wopom	-10.4839
▁čěskeho	-10.4842
▁Ukrain	-10.485
powšitkown	-10.4853
▁radźe	-10.4854
▁solche	-10.4862
▁nastupanju	-10.4865
▁Lebens	-10.4866
▁dušu	-10.488
▁čuje	-10.4882
▁najlěpše	-10.4884
▁najwjetše	-10.4884
▁pytny	-10.4884
▁Landkreis	-10.4884
▁pśe	-10.4885
steji	-10.489
▁załoženja	-10.489
▁nor	-10.4903
gegeben	-10.4911
ideolog	-10.4912
biografi	-10.4915
▁rozsudźić	-10.4916
▁würde	-10.4918
▁diesen	-10.4919
▁Němske	-10.4921
▁předewzaćel	-10.4922
zieh	-10.4922
▁narodnostn	-10.4922
▁nazwučowa	-10.4924
▁bój	-10.4926
▁wjedro	-10.4929
setzt	-10.4942
▁wothłos	-10.4943
▁dźiwadźel	-10.4945
▁słowjanskim	-10.4948
▁swjatej	-10.4951
tury	-10.4952
▁könnte	-10.4952
▁lońše	-10.4952
▁wukraju	-10.4952
▁Besuch	-10.4953
▁financieln	-10.4953
▁skrótšen	-10.4953
ruf	-10.4954
▁gmejnskej	-10.4956
▁łódź	-10.4956
▁korjenje	-10.4956
▁dosaha	-10.4957
▁njeskutk	-10.496
▁towaršnosći	-10.4961
▁młodym	-10.4962
eshalb	-10.4969
▁straž	-10.497
ST	-10.4975
zahl	-10.4978
▁zmištrowa	-10.4986
▁pohib	-10.4989
▁docpěł	-10.4989
▁měnjenje	-10.4992
▁swěrny	-10.5004
▁wojak	-10.5013
▁dispoziciji	-10.5021
▁sylni	-10.5023
▁Witaj	-10.5023
▁Wopyt	-10.5024
Chcemy	-10.5026
wčerawšim	-10.5026
▁Pawk	-10.5032
▁wěcow	-10.5033
tiskich	-10.5035
wert	-10.5035
▁1999	-10.5037
▁ludowym	-10.5042
▁Jakubaš	-10.5048
▁wšelako	-10.505
▁bratra	-10.5052
rbischsprachige	-10.5055
▁Pozdźišo	-10.5055
▁zawěsći	-10.5055
▁tykanc	-10.5055
▁pěstowarni	-10.5055
▁drjewjan	-10.5059
ußerdem	-10.5063
▁Angelegenheiten	-10.5067
▁dźenik	-10.5068
▁komorn	-10.507
plus	-10.5077
▁Loni	-10.5088
▁serbšćinje	-10.509
▁posudźowa	-10.509
▁Gebiet	-10.509
▁šansy	-10.509
▁napomina	-10.509
▁wyšnosć	-10.509
▁starosć	-10.5095
pomjat	-10.5095
▁Čita	-10.5102
▁přeprosył	-10.5103
▁delnjo	-10.5124
▁woznam	-10.5124
▁Zhorjelske	-10.5125
▁dwaceći	-10.5125
▁hinaši	-10.5127
▁dešć	-10.5134
▁Bog	-10.5138
▁1937	-10.5138
▁wobstejnosće	-10.5138
▁twarske	-10.5149
▁horjeka	-10.5152
▁Theater	-10.5159
▁zašłym	-10.516
▁přinjese	-10.5161
▁skića	-10.5163
brigad	-10.5163
▁kruty	-10.5165
▁Werner	-10.5168
▁přećeljo	-10.5171
▁hólcy	-10.5176
▁tekstow	-10.5186
schwitz	-10.5194
▁dohromady	-10.5194
▁vergangenen	-10.5194
▁přestawce	-10.5194
▁přiruna	-10.5197
▁nazymski	-10.5199
▁Klasse	-10.52
tura	-10.5203
▁zarjadowanjow	-10.5208
▁sportowy	-10.5212
▁wuměłstwow	-10.5213
akademi	-10.5215
šću	-10.5217
▁duchowneho	-10.5219
▁sobudźěłaćerjow	-10.522
▁měnja	-10.5223
▁naslědnik	-10.5225
▁mocow	-10.5226
▁akcept	-10.523
▁jónkrótn	-10.523
▁započnje	-10.523
genommen	-10.523
▁Němsko	-10.523
▁wopraša	-10.523
▁pokazowa	-10.523
▁Schön	-10.5233
▁zajimcam	-10.5236
▁žně	-10.5236
▁přednošowa	-10.5246
▁Pil	-10.5247
▁powołanske	-10.525
▁přechod	-10.5255
▁zwyši	-10.5265
▁skutkowac	-10.5265
▁žana	-10.5274
wědomje	-10.5278
lichkeit	-10.5283
▁woteda	-10.5287
▁wuznawa	-10.5293
▁ministra	-10.5296
▁Freistaat	-10.53
▁wólbach	-10.53
▁bekannt	-10.53
einander	-10.5302
▁hrajerjow	-10.5304
▁ćěka	-10.5305
figur	-10.5307
leid	-10.5307
zwuč	-10.5309
▁Cyl	-10.5315
bildung	-10.5326
▁mnohimi	-10.5329
▁wuspěšne	-10.5336
▁wobsedźer	-10.5336
▁njewotwisn	-10.5336
▁Merkel	-10.5336
▁němska	-10.5336
▁wostał	-10.5338
▁Klein	-10.5339
▁wudał	-10.5346
▁wočakuja	-10.5348
▁Myslu	-10.535
ndung	-10.5366
zběhnje	-10.5368
▁Mann	-10.5369
▁Matthias	-10.5371
▁Zawěsće	-10.5371
▁młódši	-10.5371
▁zbrašen	-10.5372
▁Wječor	-10.5374
▁zahrodźe	-10.5375
▁krajiny	-10.5379
▁jězdź	-10.5381
Započ	-10.5382
▁Bildung	-10.5383
▁1996	-10.5387
▁großen	-10.539
▁Dźěło	-10.54
▁priwatne	-10.5407
▁přitomnym	-10.5408
▁styki	-10.5408
▁lernen	-10.5408
▁Ludźo	-10.5409
▁znata	-10.5417
▁předpołoži	-10.5426
bzw	-10.5429
▁produkt	-10.5434
▁přichodnym	-10.5437
▁wosebitu	-10.5443
▁nutrnosć	-10.5443
▁přesćě	-10.5443
▁Gru	-10.5446
▁mandźelski	-10.545
▁politiskim	-10.5453
▁Mus	-10.5455
izuje	-10.5456
▁ligist	-10.5458
▁Europskej	-10.5461
▁wopytowarjo	-10.547
▁Nowiny	-10.5471
▁přetra	-10.5472
▁kedźbnosć	-10.5476
▁Niederlausitz	-10.5479
▁někajki	-10.5479
▁połojcy	-10.5479
▁Daniel	-10.5479
▁prajene	-10.548
▁wučerka	-10.5482
▁Wšě	-10.5484
▁špatn	-10.5486
▁Kop	-10.5488
▁stupa	-10.5488
▁přep	-10.5493
▁přihotuje	-10.5493
ćišć	-10.5498
▁1950	-10.5501
▁leža	-10.5504
▁dowolnosć	-10.5505
nistwje	-10.5505
kov	-10.551
▁Předewšěm	-10.5515
▁tónkróć	-10.5515
▁kóžda	-10.5515
▁Dieter	-10.552
▁prawnisk	-10.552
▁Wojerowski	-10.552
▁nutřkowny	-10.5529
▁žadanja	-10.5543
▁čitarjow	-10.5545
tiskim	-10.5545
▁politikarjo	-10.5549
▁podšmórny	-10.5551
▁přizjewja	-10.5551
▁ideal	-10.5551
▁liegt	-10.5551
▁Slepo	-10.5552
▁rejow	-10.5557
▁Stein	-10.5562
▁samsny	-10.5565
▁not	-10.5573
▁Familien	-10.5579
▁angažement	-10.5587
▁Halštrow	-10.5587
▁Vattenfall	-10.5587
▁volleyball	-10.5587
▁Zeitung	-10.5588
▁strowotn	-10.5588
haupt	-10.5589
▁Bukecach	-10.5603
▁Maßnahmen	-10.5607
▁bohaty	-10.5607
▁wobšěrny	-10.5609
medi	-10.561
Texas	-10.5612
▁wuhlad	-10.5615
▁zašłeho	-10.5619
▁najw	-10.5622
▁instituće	-10.5624
▁wudźěłk	-10.5624
▁Böhm	-10.5624
▁přińdu	-10.5624
▁Klaus	-10.5624
▁pale	-10.5631
▁starosći	-10.5648
▁wostanu	-10.5649
politiski	-10.5659
▁Mitarbeiter	-10.566
▁zhromadźiznu	-10.566
▁1933	-10.5661
▁Heimat	-10.5661
▁Film	-10.5662
▁Konjec	-10.5669
spomni	-10.5676
▁jejkow	-10.5689
▁durje	-10.5695
▁mšě	-10.5697
▁dwójn	-10.5697
▁Durch	-10.5699
▁forum	-10.5699
▁zašłosći	-10.57
▁zhromadźi	-10.57
▁finden	-10.57
▁wobroći	-10.5705
▁Němski	-10.5706
▁wěra	-10.5707
▁młodeho	-10.5713
▁Woche	-10.5716
möglich	-10.5719
▁wuměłcy	-10.5725
▁Radworski	-10.5729
jährige	-10.5734
führung	-10.5734
▁Energij	-10.5734
▁wuwučowa	-10.5734
schluss	-10.5734
▁towaršnostne	-10.5734
▁bereits	-10.5744
▁erhalten	-10.5746
luther	-10.5747
▁lisće	-10.5752
▁600	-10.5754
▁spěchowanske	-10.5756
▁800	-10.5763
▁widźał	-10.5769
▁Handrik	-10.5772
▁tajn	-10.5777
tiku	-10.578
▁přišło	-10.5786
▁zachowanje	-10.5786
ěži	-10.5791
ER	-10.5793
Budyšin	-10.5794
▁čole	-10.5798
čenja	-10.5798
▁katolikow	-10.5799
pokazuje	-10.5806
▁ludnosć	-10.5808
▁awgusće	-10.5808
▁jendźelsk	-10.5809
▁načasn	-10.5809
▁lube	-10.5811
▁wosobinski	-10.5814
▁wobkedźbować	-10.5814
▁weiteren	-10.5822
für	-10.5827
wćipn	-10.5834
▁wědu	-10.5835
▁ewangelij	-10.5837
▁słowje	-10.5843
▁etat	-10.5844
▁wuhotuje	-10.5846
▁funkciju	-10.5846
▁lěhwa	-10.5846
▁Luther	-10.5846
▁chodźa	-10.5846
▁runinje	-10.5847
▁njedźeli	-10.585
unterricht	-10.5863
▁machen	-10.5881
▁nawjedowan	-10.5881
▁kročel	-10.5883
▁přizna	-10.5884
▁stellt	-10.5884
▁měšnikow	-10.5886
▁Landtag	-10.5886
▁wubra	-10.5887
▁dźiwadle	-10.5887
▁paćer	-10.5889
▁Kř	-10.5903
▁Zwjazkowy	-10.5903
▁podał	-10.5913
▁deutschen	-10.5921
▁Krótko	-10.5921
▁Schleife	-10.5921
▁kolektiw	-10.5921
▁něhdyšeho	-10.5921
tritt	-10.5924
▁rěčach	-10.593
eitet	-10.5933
▁wobara	-10.5935
gesetzt	-10.5937
▁twarjenja	-10.594
▁swěru	-10.5943
▁hodowne	-10.5944
Hórki	-10.5949
dostojn	-10.5955
▁adwent	-10.5957
▁Rahmen	-10.5958
▁Konzept	-10.5958
▁wšelakim	-10.5958
▁Židow	-10.5959
▁dalšu	-10.5959
▁lěhwo	-10.5959
▁Simon	-10.5959
▁Kunst	-10.5959
▁politiskich	-10.596
▁němskorěčn	-10.596
▁Bukečan	-10.596
▁mužojo	-10.597
▁woborn	-10.5975
▁wjesnej	-10.5988
▁šulsk	-10.5991
▁Foće	-10.5997
▁Tilich	-10.5997
▁radšo	-10.6001
▁Njejs	-10.6004
▁wosadnym	-10.601
▁dojědźe	-10.6012
▁swjeć	-10.6031
▁stejachu	-10.6033
▁kružk	-10.6034
▁požadan	-10.6035
▁Achim	-10.6036
wuchod	-10.6036
▁Musik	-10.604
▁wozjewjenju	-10.6043
▁sportowc	-10.6046
▁wuskutkowa	-10.607
förder	-10.607
▁Ewangels	-10.6073
▁najwšelakoriše	-10.6073
▁diakon	-10.6073
▁wučomnik	-10.6074
▁rozdźělne	-10.6077
▁lange	-10.6078
▁identity	-10.608
▁Abend	-10.6089
▁Pančicy	-10.609
▁přiběrac	-10.609
AN	-10.6098
▁Dwě	-10.6099
▁přihotował	-10.6102
▁Heil	-10.6105
▁Geist	-10.6106
▁Jahrhundert	-10.6111
▁wuspěšny	-10.6111
ukrainsk	-10.6111
▁dróze	-10.6111
▁šěroko	-10.6112
▁předsydka	-10.6114
▁Muka	-10.6116
▁Franz	-10.6116
▁Gut	-10.6119
▁jasny	-10.612
▁Aufgaben	-10.6121
▁februar	-10.6123
▁spěwarskich	-10.6123
▁Chróšćansk	-10.6136
▁Cył	-10.6144
▁Wjenk	-10.6148
abei	-10.6148
▁Gabriel	-10.6149
▁fünf	-10.6149
▁baseń	-10.6149
▁bywši	-10.6149
▁firmy	-10.6149
▁Bukec	-10.6155
▁Horst	-10.6156
▁mišterstwa	-10.616
▁serbstwa	-10.6161
▁zawosta	-10.618
▁Buk	-10.6185
▁najwažniše	-10.6188
▁gehören	-10.6188
▁german	-10.6188
▁Baćon	-10.619
▁Kulowskej	-10.6191
▁zwoła	-10.6193
▁dźiwadźelnik	-10.6197
▁zakaz	-10.6201
▁wobaj	-10.6205
▁tworjenju	-10.6206
▁bitte	-10.6211
▁pólskeho	-10.6214
▁wenig	-10.6225
▁słónč	-10.6227
▁gmejnje	-10.6227
▁schodźenk	-10.6227
▁Leiter	-10.6227
▁kamjeń	-10.6228
▁rańš	-10.6229
▁Swět	-10.623
▁znaja	-10.6244
▁kěrlušow	-10.6248
▁podobny	-10.6252
▁kóždemu	-10.6253
JA	-10.626
ologiske	-10.6263
SV	-10.6264
▁wuwědomi	-10.6266
▁princip	-10.6266
▁Garten	-10.6266
▁tutomu	-10.6266
▁wopisuje	-10.6266
▁zhubjen	-10.6268
▁wašnjom	-10.627
▁Přeco	-10.6272
Mišnjanskeho	-10.6275
▁hódnoty	-10.628
▁titlom	-10.6283
▁pućowansk	-10.6294
▁Domowinskej	-10.6297
▁Hdy	-10.6302
▁Schröder	-10.6305
▁poněčim	-10.6305
▁zasłuži	-10.6305
▁Sulšec	-10.6305
▁wjednistwo	-10.6305
▁škoda	-10.6305
schutz	-10.6307
▁starobn	-10.6308
▁wěnuje	-10.6309
lank	-10.631
lauf	-10.6317
▁Krawcec	-10.6323
sozial	-10.6332
▁außer	-10.6335
▁hodown	-10.6336
▁jandźel	-10.6344
▁hrajka	-10.6345
pólske	-10.6346
▁wotwisn	-10.6347
▁wysokosći	-10.6348
▁Zaměr	-10.6351
▁kupjel	-10.6356
▁Monika	-10.6362
▁wothłós	-10.6363
▁Drježdźanskej	-10.638
ziehen	-10.638
▁podachmy	-10.6381
▁bestimmt	-10.6383
▁materieln	-10.6383
▁jědnaće	-10.6383
▁kultus	-10.6383
▁měšnisk	-10.6383
▁nihdy	-10.6384
▁powšitkownje	-10.6384
▁antologij	-10.6387
▁Mějach	-10.6391
▁Bohom	-10.6407
02	-10.641
▁Namen	-10.641
▁někotrymi	-10.641
▁generacija	-10.6423
▁senior	-10.6423
▁juniju	-10.6423
▁přizamknje	-10.6423
▁hłowu	-10.6425
ojte	-10.6425
▁dowěru	-10.6426
▁njezamó	-10.6427
▁pjekar	-10.6431
▁zwoprawdźić	-10.6432
▁přichodnu	-10.6434
▁přikładźe	-10.6441
▁fotow	-10.6443
▁August	-10.6462
▁Siedlungsgebiet	-10.6462
▁namołwja	-10.6462
▁Šołćic	-10.6462
▁Mój	-10.6463
▁Mitglied	-10.6468
▁naslědn	-10.6469
▁wolij	-10.6471
▁wotběh	-10.6485
▁rěz	-10.6489
▁Dźěła	-10.6492
▁Ex	-10.6492
▁Johann	-10.6493
arstwo	-10.6501
najwšelakorišich	-10.6502
▁Přiwšěm	-10.6502
▁interview	-10.6502
▁sposrědkowa	-10.6502
▁regionalne	-10.6503
▁Schutz	-10.6503
▁Friedrich	-10.6504
▁wuprajenje	-10.6504
▁mjeńši	-10.6506
▁Grodk	-10.6507
▁Dźe	-10.6516
izacije	-10.6518
gehen	-10.6518
▁Chór	-10.6518
▁duši	-10.6523
▁narok	-10.6528
ücke	-10.6541
▁skrótka	-10.6542
▁wosebita	-10.6542
▁architekt	-10.6542
▁Meškank	-10.6542
▁njedostatk	-10.6543
▁kapitl	-10.6543
torhny	-10.6544
▁2002	-10.6553
▁gmejnski	-10.6556
▁stop	-10.6557
▁politika	-10.6571
▁městopředsyd	-10.6582
▁posmjertnin	-10.6582
▁trěbna	-10.6582
▁Ryćer	-10.6582
▁němscy	-10.6583
▁wudawaćel	-10.6583
▁Organ	-10.6584
▁solist	-10.6598
08	-10.6616
▁waži	-10.6618
▁pěsk	-10.662
▁žohnowanje	-10.662
▁sorabistisk	-10.6621
▁sakrament	-10.6623
▁zweisprachige	-10.6623
▁sympozij	-10.6623
▁MDR	-10.6623
▁National	-10.6623
▁garant	-10.6623
▁Lětuš	-10.6624
▁heraus	-10.6627
▁połdra	-10.6631
▁narodninam	-10.6631
grund	-10.6633
ŁO	-10.6633
▁dóstawa	-10.6638
prawni	-10.6642
▁wotpowědny	-10.6643
▁Aufgabe	-10.6655
▁režiser	-10.6663
▁wožiwi	-10.6663
▁Wirtschaft	-10.6663
▁Pjatk	-10.6663
▁Wowčer	-10.6664
▁bywše	-10.6665
▁našemu	-10.6675
wumóž	-10.6681
▁zrani	-10.6682
▁knježerstwow	-10.6694
▁tale	-10.6695
▁wupraja	-10.6701
▁Hendrich	-10.6704
▁doprědka	-10.6704
▁richtig	-10.6704
▁ličbje	-10.6704
▁wobsadźi	-10.6704
▁mjenować	-10.6711
▁Pfarrer	-10.6725
▁wzać	-10.6726
▁regionalny	-10.6731
▁skónč	-10.6734
▁Verwaltung	-10.6745
▁nawjeduje	-10.6745
▁pred	-10.6748
▁sobuskutko	-10.6753
▁Awstralskej	-10.6753
▁Johannes	-10.6754
▁angažowan	-10.6758
▁misionar	-10.6763
▁Rakecach	-10.6766
▁měrcu	-10.6769
▁Čern	-10.6773
▁aktu	-10.6777
▁nutř	-10.6783
▁Sćapan	-10.6786
▁zeznajomi	-10.6786
klinča	-10.6789
▁Choćebuskim	-10.6797
▁trajn	-10.6798
▁radźi	-10.6824
region	-10.6825
▁přidruži	-10.6827
▁republiki	-10.6827
▁Finanz	-10.6827
▁Kontakt	-10.6827
▁Spěchowa	-10.6827
▁Rakečansk	-10.6827
▁Workleč	-10.6827
▁Spree	-10.6828
▁lokal	-10.683
▁Jenč	-10.6834
▁rodźeny	-10.6834
▁fararjej	-10.6846
▁jednore	-10.6847
▁cyłkowne	-10.6849
hodźinsk	-10.6853
▁Crostwitz	-10.6868
▁Mädchen	-10.6868
▁politice	-10.6869
▁organizowan	-10.6869
kuzła	-10.6873
▁wobdźělenje	-10.688
Łužica	-10.6882
▁najwažniši	-10.691
▁swědči	-10.691
▁chłosta	-10.691
▁Šiman	-10.691
▁njejsmy	-10.691
▁druha	-10.6911
Michał	-10.6913
▁Kraft	-10.6916
▁změnje	-10.6917
▁hospodarstwo	-10.6922
Porno	-10.6927
rědka	-10.6933
wachsen	-10.6936
▁sobudźěłaćerjo	-10.6937
němske	-10.694
efekt	-10.6943
▁Rudolf	-10.6951
▁jězbu	-10.6951
▁wonkowny	-10.6952
▁wudospołnj	-10.6952
▁Waršawje	-10.6953
▁wočakowanja	-10.6958
▁wubědźowanju	-10.6961
▁Tutu	-10.6964
▁letzten	-10.6966
druck	-10.6967
▁hraješe	-10.6969
▁wokrjesnej	-10.6971
▁jednorje	-10.6985
▁2001	-10.6987
▁Braunkohle	-10.6993
▁Łužiskich	-10.6993
▁wójska	-10.6994
▁konferenca	-10.6994
▁aktualne	-10.6994
njesli	-10.6998
▁lěću	-10.6999
unter	-10.7008
▁zjednoćenstwo	-10.701
▁wašnja	-10.701
▁chorych	-10.7012
▁Wald	-10.7013
▁Thema	-10.702
wrót	-10.7024
▁Njeswačansk	-10.7035
▁Hudźbn	-10.7035
▁wozrodźen	-10.7035
▁brunicow	-10.7036
▁zasłužby	-10.7036
▁Heide	-10.7039
▁wójna	-10.7039
▁načoln	-10.7045
▁bliskosć	-10.7049
SL	-10.7058
režij	-10.7061
▁rozeznawa	-10.7077
▁překroč	-10.7077
▁napjatosć	-10.7077
▁zasadźowa	-10.7077
▁Kilian	-10.7078
▁Malešec	-10.7078
▁přirody	-10.7078
▁ćehnje	-10.708
▁knježeše	-10.708
▁čisle	-10.7084
▁Imiš	-10.7087
▁płód	-10.709
▁literarnych	-10.7097
▁Poprawom	-10.712
▁maćeršćinje	-10.712
▁njezbožo	-10.712
▁Druhdy	-10.712
▁rozhłosu	-10.712
▁hósć	-10.712
▁rytm	-10.712
▁nadeńdźe	-10.712
▁policije	-10.7121
▁Čornakec	-10.7124
▁Weise	-10.7126
▁putnikowanje	-10.7127
▁hody	-10.7128
▁spisow	-10.713
meister	-10.7131
lětušeho	-10.7133
Verlag	-10.7137
▁skaza	-10.7144
▁Bad	-10.7145
▁Mały	-10.7148
▁Chor	-10.7162
▁iniciatiwu	-10.7162
▁Najwjetš	-10.7162
▁njemóžu	-10.7162
▁pismowstwa	-10.7162
▁Wjeršk	-10.7162
▁Carity	-10.7162
▁Šěn	-10.7167
▁koparjo	-10.7173
▁zwjazkowej	-10.7186
▁Hnydom	-10.7205
▁druhu	-10.7206
▁wuchodo	-10.7206
▁Wčera	-10.7207
nzel	-10.7211
horunja	-10.723
▁Kóžde	-10.7248
▁transport	-10.7248
▁žiwjenjom	-10.7248
▁Wojerowskej	-10.7249
▁žonu	-10.725
▁wotpoč	-10.725
▁spěwarjow	-10.725
▁Zdźěr	-10.7251
▁pastyr	-10.7256
wendisch	-10.7263
▁1960	-10.7264
▁wobstejnosć	-10.7275
▁barba	-10.7276
▁Dyrbj	-10.7291
▁Pětš	-10.7292
▁zawrě	-10.7293
▁Christus	-10.73
▁čołm	-10.73
▁serbskosć	-10.7313
▁Förder	-10.732
▁Deleńk	-10.7334
Mišnjanski	-10.7334
▁nawjedowaše	-10.7335
▁Trudl	-10.7337
▁kehel	-10.7339
▁wudźěła	-10.7339
▁Beruf	-10.734
▁zjednoći	-10.7341
▁hospodarstwa	-10.7342
▁njeměł	-10.7353
▁luby	-10.7375
▁König	-10.7378
▁Unterstützung	-10.7378
▁tradiciji	-10.7378
▁zepěra	-10.7378
▁saněrowan	-10.7378
▁rozestajenja	-10.7378
▁Platz	-10.7378
▁arbeiten	-10.7383
▁hódnotu	-10.7391
▁wotzamk	-10.7405
▁profil	-10.7407
▁Srjedź	-10.7409
▁250	-10.7412
▁Ćisk	-10.7412
▁Serbsku	-10.7412
▁posłuž	-10.7419
▁Spočatk	-10.7421
▁dyrbju	-10.7421
▁informacijach	-10.7422
▁wozjewja	-10.7422
▁měnješe	-10.7422
▁stejišćo	-10.7424
▁hudźbje	-10.7424
▁fri	-10.7428
płaći	-10.7434
▁wójnski	-10.7435
▁Zwei	-10.7442
▁Sprjewja	-10.7465
▁połoženju	-10.7465
▁prezidij	-10.7465
▁přežiwi	-10.7465
▁Lehmann	-10.7465
▁wólby	-10.7465
▁zhladuj	-10.7465
▁Šewc	-10.7465
▁předleža	-10.7466
▁Kašub	-10.7466
▁chorowni	-10.7466
unočasnje	-10.7466
▁srjedźišćo	-10.7467
▁Nawki	-10.7467
▁krej	-10.7471
▁wučby	-10.7484
▁šp	-10.7506
▁wollte	-10.7509
▁notwendig	-10.7509
▁nětčiši	-10.7509
▁offen	-10.7509
▁pišćele	-10.7509
▁sylnišo	-10.7512
▁nawodnica	-10.7514
▁pochowa	-10.7516
▁wobnowi	-10.7517
jewja	-10.753
▁Njez	-10.7532
ńč	-10.7537
▁motor	-10.754
išćo	-10.7542
▁Křiž	-10.7546
▁Leipzig	-10.7554
▁eksemplar	-10.7554
▁Varnsdorf	-10.7554
▁Wutrobn	-10.7554
▁wutroba	-10.7554
▁kóšty	-10.7554
▁Ludmila	-10.7554
▁Prěnja	-10.7554
▁šofer	-10.7554
▁přińć	-10.7555
▁Rawp	-10.7556
▁rězbar	-10.7556
▁dźensniše	-10.7557
▁dušepastyrstwo	-10.7562
01	-10.7566
projekt	-10.7568
▁Budyska	-10.7569
▁samsn	-10.7573
mysł	-10.7575
▁předewza	-10.7578
▁kupc	-10.7587
▁němčiny	-10.7598
▁čerpa	-10.7598
▁nadobo	-10.7599
▁njepřećel	-10.7599
▁aktualny	-10.7599
▁zniči	-10.7601
▁bydlensk	-10.7602
▁mjelč	-10.7612
bild	-10.7616
▁Rozsud	-10.7617
▁Ralbic	-10.7627
▁twarić	-10.7628
Serbska	-10.763
▁mehrere	-10.763
Što	-10.7636
▁zwjazanosć	-10.7638
katolske	-10.7641
▁Cottbus	-10.7643
▁intendant	-10.7643
▁drohotn	-10.7643
▁früh	-10.7643
▁zběrka	-10.7643
wählt	-10.7643
▁jenička	-10.7644
▁kulturelle	-10.7644
▁Text	-10.7644
▁žohnowa	-10.7645
▁eura	-10.765
hódnoći	-10.7659
ehrt	-10.7672
▁status	-10.7682
▁Wobaj	-10.7683
▁Zjednoćen	-10.7688
▁nächste	-10.7688
▁führt	-10.7688
▁kotraj	-10.7688
▁škodu	-10.7688
▁Zusammenarbeit	-10.7688
nacional	-10.7689
▁ćěln	-10.7694
▁hamt	-10.7709
▁wupru	-10.771
▁přewjedł	-10.7715
▁sprawnosć	-10.7727
▁liča	-10.7733
▁Entscheidung	-10.7733
▁Träger	-10.7733
▁twórbu	-10.7733
▁njón	-10.7733
▁žórła	-10.7733
▁popołdnjo	-10.7733
▁wukraja	-10.7733
onferenc	-10.7733
▁začuće	-10.7733
▁šěroke	-10.7733
▁energijow	-10.7734
▁wječer	-10.7737
▁łužiskich	-10.774
▁parlament	-10.7745
▁Hilfe	-10.7762
▁bomb	-10.7762
hłós	-10.7772
▁bleibt	-10.7778
▁hwězda	-10.7778
▁insbesondere	-10.7778
▁pišćelach	-10.7778
▁započina	-10.7778
TNI	-10.7778
▁najlěpje	-10.7778
▁Pazlic	-10.7778
▁TO	-10.7779
▁swjato	-10.7781
▁Klóštersk	-10.7823
▁jězby	-10.7823
▁wubudźi	-10.7823
▁wotpočink	-10.7824
▁zrěčenja	-10.7824
▁rozrost	-10.7839
▁stawizniske	-10.7844
▁přewjedu	-10.785
▁šoł	-10.7867
▁Schmidt	-10.7869
▁komisije	-10.7869
▁rozjasni	-10.7869
▁dwurěčnosć	-10.7869
▁dróhi	-10.7869
▁přispomnj	-10.7869
▁wobhladuje	-10.7869
▁Dubraw	-10.787
▁hłowna	-10.787
▁wuzamk	-10.7873
železn	-10.7875
▁kubłanišćo	-10.7878
▁eure	-10.7879
▁1956	-10.7882
▁politikar	-10.7886
...''	-10.7887
zhromadn	-10.7887
▁Serbscy	-10.7889
minister	-10.789
▁Rjan	-10.7896
▁Njebjelčan	-10.79
▁zarjadniske	-10.7912
▁Gesetz	-10.7914
▁Chołmc	-10.7915
▁Pěskec	-10.7915
▁katolska	-10.7915
▁spřihotowa	-10.7915
▁unterstützt	-10.7915
▁znjewužiwa	-10.7915
▁rozprawy	-10.7915
▁priwatny	-10.7915
▁techniku	-10.7915
▁stadion	-10.7915
▁Budarjowa	-10.7915
▁zamóžnosć	-10.7915
▁Poslednj	-10.7915
▁twjerdźi	-10.7916
▁wobory	-10.7916
▁Wissenschaft	-10.7919
▁wuhlo	-10.7935
▁Boh	-10.7936
▁wuzna	-10.7943
▁Himmel	-10.7961
▁přiwuznych	-10.7961
▁přěhra	-10.7961
▁rezultat	-10.7961
▁wutrobje	-10.7961
▁Wudwor	-10.7961
▁schnell	-10.7961
▁zesylni	-10.7961
▁spjeć	-10.7965
▁wobwodnej	-10.7967
aktion	-10.7971
▁120	-10.7983
▁hrajny	-10.7984
▁čuć	-10.8003
▁Budestec	-10.8007
▁ludospyt	-10.8007
▁hólč	-10.8007
▁Bórze	-10.8007
▁Ličb	-10.801
▁Swoj	-10.8015
▁sydło	-10.8026
▁wjedł	-10.8027
němski	-10.8028
▁Von	-10.8031
kirche	-10.804
▁Hoyerswerda	-10.8054
▁hwězdy	-10.8054
▁kompozicije	-10.8054
▁nazhonjenjow	-10.8054
▁dalokej	-10.8054
▁signal	-10.8054
▁ciwil	-10.8054
▁Richter	-10.8054
▁wukonjeć	-10.8055
▁03	-10.8064
▁1947	-10.807
sociali	-10.8073
▁Pančičansk	-10.81
▁widźu	-10.8101
▁wjedrje	-10.8101
▁Biskopic	-10.8107
▁lassen	-10.8108
▁rozhlad	-10.811
▁wisa	-10.8111
▁Liebe	-10.8119
▁zjedno	-10.8132
Naš	-10.8133
▁wotchad	-10.8147
▁dialekt	-10.8147
▁wuměnjenjemi	-10.8148
▁njebjom	-10.8148
▁naměsće	-10.8148
▁Dietrich	-10.8148
▁přewjele	-10.8148
▁sympati	-10.8148
▁spjelnj	-10.8149
▁organist	-10.8149
▁kulturna	-10.8149
▁sowjets	-10.8149
▁Rogow	-10.8151
▁njedalok	-10.8152
▁stammt	-10.8154
▁ludowědn	-10.8158
▁drama	-10.816
Dyrbimy	-10.8166
sorbische	-10.8166
▁mustwje	-10.8169
▁rěd	-10.8186
▁rozpomina	-10.8195
▁Šćěpan	-10.8195
▁Heinrich	-10.8195
▁přesydlen	-10.8195
▁žanr	-10.8195
▁schorje	-10.8196
▁sorabistiki	-10.8197
gericht	-10.8198
▁rozhłosow	-10.8198
▁wóčko	-10.8206
▁miłosć	-10.8207
▁płonin	-10.8212
▁nosy	-10.822
▁Leute	-10.822
▁Gymnasium	-10.8242
▁Wjetšina	-10.8242
▁swobody	-10.8242
▁zaćahny	-10.8242
▁Jeničce	-10.8242
▁Něšto	-10.8242
▁přichilen	-10.8242
▁Njemóž	-10.8243
▁Bernd	-10.8243
▁struktury	-10.8245
▁Kubašec	-10.8245
▁nuzy	-10.8258
▁přećiwnik	-10.8264
hard	-10.8281
▁Wosadnik	-10.8283
▁hrajne	-10.8289
▁objekt	-10.8289
▁Internet	-10.829
▁Hitler	-10.829
▁policajsk	-10.829
▁byrgar	-10.829
▁žiwnosć	-10.829
▁wupada	-10.8291
▁koncil	-10.8293
▁zapal	-10.8298
gelegt	-10.8298
▁zynk	-10.831
▁euro	-10.8327
Njechorńskeho	-10.8337
▁započeć	-10.8337
▁wotbagrowa	-10.8337
▁kejžor	-10.8337
▁prašenjow	-10.8338
▁prašenju	-10.8338
▁portret	-10.8338
▁Jónu	-10.8338
▁Bibli	-10.8338
▁wuhna	-10.8338
▁wupyta	-10.8339
▁zarjedźe	-10.834
▁Natur	-10.8344
▁wubědźowa	-10.8347
▁nastroj	-10.8347
▁rjanosć	-10.8348
▁horliw	-10.836
▁moji	-10.837
ójšto	-10.8383
▁trěbnosć	-10.8386
▁Tradition	-10.8386
▁njeposrědn	-10.8386
▁požohnowa	-10.8386
▁móhłrjec	-10.8386
▁towarstwje	-10.8386
▁hrozy	-10.8386
theater	-10.8386
▁gestern	-10.8386
▁96)	-10.8386
ordnung	-10.8386
kwalifi	-10.8387
▁přilubi	-10.8388
▁wjesele	-10.8389
▁Kamjenskej	-10.8394
hódne	-10.8423
stajeć	-10.8423
▁aktiwny	-10.843
▁Gespräch	-10.8434
▁Günter	-10.8434
▁róčnicu	-10.8434
▁swobodu	-10.8434
▁zastojnstwa	-10.8434
▁njenamaka	-10.8434
▁Korjeńk	-10.8434
▁rozprawu	-10.8434
▁kompleks	-10.8434
▁Prjedy	-10.8434
▁chutnje	-10.8434
▁Sernjan	-10.8435
▁wažna	-10.8437
▁zarjadnišća	-10.8441
wobmjezowa	-10.8466
▁přichad	-10.8468
Terez	-10.8472
▁wobdźěleny	-10.8478
▁spisownej	-10.8482
▁Dörfer	-10.8482
▁gymnaziast	-10.8482
▁findet	-10.8482
▁Třeć	-10.8482
▁komplikowan	-10.8482
▁techniske	-10.8483
▁hłownu	-10.8483
▁chorownje	-10.8483
zymsk	-10.8484
skutk	-10.8486
▁wuchodźe	-10.8495
▁wučbje	-10.8498
▁wikar	-10.8512
Bjesad	-10.8521
▁Narodne	-10.8522
▁Stelle	-10.853
▁nawopak	-10.8531
▁nětčiše	-10.8531
▁prapremjer	-10.8531
▁tradicija	-10.8531
▁nimoměry	-10.8531
▁referat	-10.8531
▁besser	-10.8532
▁wumrě	-10.8532
▁darićel	-10.8532
▁1949	-10.8548
▁groß	-10.8548
najrjeńš	-10.8572
▁powšitkowne	-10.8574
▁překwapi	-10.858
▁wažnosć	-10.8583
▁rozhłós	-10.8585
▁holč	-10.8587
▁identitu	-10.8588
▁700	-10.8592
▁rund	-10.8593
▁čestne	-10.8602
stronski	-10.8603
▁dožiwjen	-10.8607
▁nacionalsociali	-10.8613
▁Bjedrich	-10.8629
▁Institutionen	-10.8629
▁funkcionar	-10.8629
▁publicist	-10.8629
▁strowotu	-10.8629
▁heißt	-10.863
▁artikl	-10.863
▁ryćer	-10.863
▁zahoritosć	-10.8632
▁Familie	-10.8641
ählen	-10.8642
ewolucij	-10.8659
Hdyž	-10.8665
▁sprachliche	-10.8667
▁telefonowe	-10.8675
▁doskónčnje	-10.8679
▁posedźenja	-10.8679
▁kwartet	-10.8679
▁šulstwa	-10.8679
▁połojca	-10.8679
▁protyka	-10.8679
▁pismik	-10.868
▁Albert	-10.868
▁zdźerženje	-10.8684
▁kulturno	-10.8684
▁Madlen	-10.8686
▁rozprawa	-10.8686
▁rozsudźe	-10.8694
ewak	-10.87
▁Anfang	-10.8729
▁Ergebnis	-10.8729
▁ekonom	-10.8729
▁sćahny	-10.8729
▁wólbne	-10.8729
▁2:0	-10.8729
▁Kniha	-10.8729
▁wujimk	-10.873
▁naročn	-10.873
▁přeswědčeny	-10.8733
▁wopomnjensk	-10.8733
▁Straße	-10.8734
▁skići	-10.8734
▁stopnjow	-10.8735
swoj	-10.8742
▁Fall	-10.8757
geschrieben	-10.8779
▁Detlef	-10.8779
▁wotwobara	-10.8779
▁Špitank	-10.8779
▁zwrěšći	-10.8779
▁holcow	-10.8779
▁Popołdnj	-10.8779
popularn	-10.8779
▁pozitiwne	-10.8779
▁diskusiju	-10.8779
▁pisma	-10.8779
▁tworjacych	-10.8783
▁Jězusowe	-10.8797
▁Holan	-10.8822
Lipa	-10.8827
▁domjacnosć	-10.8829
▁wotmołwu	-10.8829
▁Vogel	-10.8829
▁powójnski	-10.8829
▁Museum	-10.8829
▁TAM	-10.8829
▁přemało	-10.8829
▁holca	-10.8829
▁pacien	-10.8829
▁wěstu	-10.8832
ismus	-10.8833
▁słyši	-10.8833
▁Konrad	-10.8836
▁Kito	-10.8836
▁2012	-10.8839
▁wopisowa	-10.8842
▁cyłkowny	-10.8843
schütz	-10.8848
leiter	-10.8853
▁klasisk	-10.8855
▁redakciji	-10.8879
▁wótčinc	-10.8879
▁konsekwentn	-10.8879
Błóta	-10.888
▁jězba	-10.888
▁bydlenje	-10.888
▁mortwy	-10.8881
▁wupruwowa	-10.8882
▁městnosć	-10.8892
▁biskopskej	-10.8898
AG	-10.892
▁Budyšan	-10.893
▁Njeswačidle	-10.893
▁bjezdźěłny	-10.893
▁zběrku	-10.893
▁Mužakow	-10.893
▁Christoph	-10.893
▁Koncert	-10.893
▁ČIS	-10.893
▁Weimar	-10.893
▁woznamjenje	-10.8933
knježe	-10.8938
moral	-10.8938
▁křižerjow	-10.894
jasnje	-10.8951
▁Zhorjelski	-10.8981
▁biblije	-10.8981
▁PDS	-10.8981
▁přetwori	-10.8983
swět	-10.899
▁Uwe	-10.8995
▁zabyć	-10.8997
▁dźensnišej	-10.9007
▁dźens	-10.9024
▁Literatur	-10.9033
▁Situation	-10.9033
▁předchadnik	-10.9033
▁wuzwoleny	-10.9033
▁Posledni	-10.9033
▁sinfoni	-10.9033
▁später	-10.9033
▁genannt	-10.9033
přisłuš	-10.9033
▁njeznate	-10.9037
Bud	-10.9054
▁Budissa	-10.9084
▁zapřah	-10.9084
▁čestnohamtsk	-10.9084
▁zwěsća	-10.9084
▁šěroki	-10.9084
▁začuća	-10.9084
▁němsku	-10.9084
stätte	-10.909
▁załoženju	-10.9095
▁sowjetske	-10.9096
▁skutkownosć	-10.9098
▁Zhromadn	-10.912
▁přinošować	-10.9136
▁unterstützen	-10.9136
▁Ochranow	-10.9136
▁přiležnosć	-10.9136
▁přeslědź	-10.9136
▁praksy	-10.9136
▁hołym	-10.9136
▁Internat	-10.9136
▁wjesoły	-10.9137
▁mjeńše	-10.9137
▁plahowa	-10.914
▁oft	-10.9141
▁katolik	-10.9149
▁hudź	-10.9165
Spěw	-10.9174
tysac	-10.9183
▁Sonntag	-10.9188
▁alternatiw	-10.9188
▁entwickelt	-10.9188
▁liturg	-10.9188
▁někotryžkuli	-10.9188
▁zwjesela	-10.9188
▁Přećiwo	-10.9188
▁Themen	-10.9188
▁trening	-10.9188
▁bydlenja	-10.9188
▁aktiwity	-10.9188
▁arbeitet	-10.9188
▁slawische	-10.9189
gebiet	-10.9189
▁Gäste	-10.9189
▁změnu	-10.919
▁prašeć	-10.919
▁Dołho	-10.919
▁wjesołe	-10.9193
▁powab	-10.9194
▁wuknyć	-10.9195
▁póńdźe	-10.9196
lös	-10.9215
▁powołanski	-10.9238
hudźbn	-10.9239
▁Görlitz	-10.924
▁bleiben	-10.924
▁Völker	-10.924
▁počesći	-10.924
▁Dalša	-10.9241
▁medijach	-10.9242
▁zrodźi	-10.9248
▁Słowakskej	-10.9255
▁Róžant	-10.9257
▁načini	-10.9261
▁bereit	-10.9281
▁Jurk	-10.9288
▁wurězk	-10.9293
▁zwólniwy	-10.9293
▁Fabian	-10.9293
▁bolostn	-10.9293
▁woheń	-10.9293
▁koncern	-10.9293
▁Sommer	-10.9293
▁Italskej	-10.9294
▁Fota	-10.9294
▁žónski	-10.9294
▁přijěł	-10.9296
harmoni	-10.9296
Hauptversammlung	-10.93
▁Hinc	-10.93
▁Stunde	-10.9308
folge	-10.9331
pěsto	-10.9336
▁pěši	-10.9341
▁wzajomnosć	-10.9345
▁redakcije	-10.9346
▁zwjeseli	-10.9346
▁Jordan	-10.9346
▁Partner	-10.9346
▁snadnje	-10.9346
▁Zakład	-10.9346
▁Nawěšk	-10.9346
▁doporuč	-10.9346
▁telefonowym	-10.9351
▁Hartz	-10.9352
▁šulerjemi	-10.9358
▁faktor	-10.9367
▁Lessing	-10.9399
▁PJATK	-10.9399
▁koncentrowa	-10.9399
▁situacije	-10.9399
▁wokřew	-10.9399
▁Kindergarten	-10.9399
▁1987	-10.9399
▁Erfahrung	-10.9399
▁1955	-10.9399
▁wuprajenju	-10.94
▁zakonju	-10.9402
nabožinsk	-10.9403
přiměrjen	-10.9408
▁habt	-10.9408
▁wotstawk	-10.941
▁Klima	-10.9419
▁Čornak	-10.9421
wučeny	-10.9425
▁saksk	-10.9429
angažowa	-10.9438
▁wěčne	-10.944
▁chcych	-10.9445
angebot	-10.9449
▁Prezident	-10.9453
▁absolut	-10.9453
▁dwurěčnych	-10.9453
▁Zimmer	-10.9453
▁wuswětl	-10.9453
▁Tajki	-10.9453
▁prócowanje	-10.9454
▁klóštr	-10.946
▁wólny	-10.9481
▁Bundesvorstand	-10.9506
▁Student	-10.9506
▁Zajimawe	-10.9506
▁sezony	-10.9506
▁najnowše	-10.9506
▁spricht	-10.9506
▁płaća	-10.9507
▁Sćěh	-10.9507
▁kuble	-10.9509
▁rozšěrjenje	-10.9513
▁twjerd	-10.9513
▁nuzowa	-10.9514
▁scena	-10.9528
▁wupokaz	-10.9531
skupin	-10.9539
▁Monat	-10.9555
issenschaftliche	-10.9556
rjemjeslnisk	-10.956
▁Teilnehmer	-10.956
▁přewozmje	-10.956
▁wuswobodźi	-10.956
▁přiwuzni	-10.956
▁Heute	-10.9561
▁smój	-10.9561
▁žónske	-10.9563
dźesać	-10.9564
▁přepyto	-10.9564
▁Geld	-10.9565
wěčn	-10.9598
▁připołdnju	-10.9615
▁popłatk	-10.9615
▁ekstrem	-10.9615
Centraln	-10.9615
▁wšojedne	-10.9615
▁kroči	-10.9615
▁rekord	-10.9616
▁Wučer	-10.9616
▁sceny	-10.9622
▁lubowar	-10.9631
wasser	-10.9633
▁starše	-10.9664
>	-10.9669
▁oktobru	-10.9669
▁iniciator	-10.9669
▁protokol	-10.9669
▁swědča	-10.9669
▁SKI	-10.9669
▁dróha	-10.9669
▁podarmo	-10.967
▁pojednan	-10.967
▁Snadź	-10.967
▁zašłosće	-10.9677
▁wokolny	-10.9693
frage	-10.9707
Łazowsk	-10.9713
▁pušći	-10.9718
▁Zahrodnik	-10.9724
▁najwuznamniš	-10.9724
▁natürlich	-10.9724
▁kapałce	-10.9724
▁woblubowane	-10.9724
▁wutrajn	-10.9724
▁bilanc	-10.9724
▁wunošk	-10.9725
▁technika	-10.9725
▁januaru	-10.9725
▁aktiv	-10.9727
▁lisćik	-10.9727
bringen	-10.9728
▁ležeše	-10.9729
gestalt	-10.9734
▁Mensch	-10.9741
▁Winar	-10.9752
▁Hornjołužisk	-10.978
▁hriwnow	-10.978
▁nowembru	-10.978
▁Schrift	-10.978
▁njezboža	-10.978
▁ptačokwasn	-10.978
▁Klukš	-10.978
▁kopańcy	-10.978
▁napohlad	-10.978
▁spušćomn	-10.978
▁rukomaj	-10.978
▁sekcije	-10.978
▁Partei	-10.978
▁Regierung	-10.9782
▁Domaška	-10.9782
▁wšelakore	-10.9788
▁zadźiwa	-10.9789
▁jurist	-10.9798
▁nazymske	-10.9802
▁pozdźiši	-10.9835
▁Dokument	-10.9835
▁Wałda	-10.9835
▁Schwarz	-10.9836
▁Augen	-10.9838
▁nutřkown	-10.9839
▁putnikowanja	-10.9841
▁rjana	-10.9842
▁Dawid	-10.9845
tłóči	-10.9856
mjeno	-10.9857
▁wäre	-10.9864
▁dožiwja	-10.9891
▁dźěćatstwa	-10.9891
▁katholische	-10.9891
▁napřećiwn	-10.9891
▁pobrachuje	-10.9891
▁hłuboke	-10.9891
▁kašubsk	-10.9891
▁přesydli	-10.9891
▁ptači	-10.9891
▁kubło	-10.9891
▁kritika	-10.9891
▁blok	-10.9894
▁připosłucharjow	-10.9896
▁stawizniski	-10.9897
▁dołhodobn	-10.9914
▁njedósta	-10.9947
▁zbliži	-10.9947
▁najstarši	-10.9947
▁bydleše	-10.9947
▁Sitzung	-10.9948
▁Pokaza	-10.9948
▁Maks	-10.9961
stück	-10.9965
čestn	-10.9976
▁Interesse	-10.999
▁katolscy	-11.0004
▁tabulki	-11.0004
gesprochen	-11.0004
▁besteht	-11.0004
▁njedźiwaj	-11.0004
treffen	-11.0004
▁chodźeše	-11.0004
▁bjerje	-11.0005
▁wótře	-11.0007
▁hłosa	-11.0007
▁wusud	-11.0011
▁wočerstwj	-11.0018
stajeja	-11.0023
zäh	-11.0031
▁instrumentaln	-11.0034
▁firmow	-11.0039
▁Znajmjeńša	-11.006
▁institucija	-11.006
▁Čłonojo	-11.006
▁lěhwje	-11.006
▁bjeztoho	-11.0061
▁distanc	-11.0061
▁Stimme	-11.0061
▁kemši	-11.0061
▁Přičina	-11.0061
▁Worklečanskej	-11.0061
▁zymski	-11.0063
▁připowědźe	-11.0063
▁ptačk	-11.0063
▁wokno	-11.0064
▁Šleskej	-11.0073
▁podhlad	-11.0074
▁wójnske	-11.0081
přimny	-11.0105
▁načolnik	-11.0111
▁harmon	-11.0114
kenntnisse	-11.0118
▁alkohol	-11.0118
▁swobodnje	-11.0118
▁Betrieb	-11.0118
▁Steffen	-11.0118
▁komitej	-11.0118
▁česćownosć	-11.0118
▁šansa	-11.0119
▁Ausbildung	-11.012
▁wobydlerjemi	-11.0122
▁Tier	-11.0129
▁Dienst	-11.0141
platz	-11.0145
▁Mysl	-11.0152
Wšitk	-11.0154
▁Słowak	-11.016
▁Köhler	-11.0175
▁poslednja	-11.0175
▁Trjebin	-11.0175
▁ideju	-11.0175
▁wotewza	-11.0175
▁Kasper	-11.0175
▁einfach	-11.0176
▁organizacija	-11.0177
▁postawu	-11.0177
▁ćěła	-11.0178
▁přełožowar	-11.0178
▁informaciske	-11.0178
Čerwjen	-11.018
▁zemju	-11.0184
▁formow	-11.0204
▁internat	-11.0205
▁Cyril	-11.0207
▁Dohromady	-11.0233
▁Kaulfürst	-11.0233
▁Njedawno	-11.0233
▁manuskript	-11.0233
▁skućićel	-11.0233
▁Schleswig	-11.0233
złóstni	-11.0233
▁wočomaj	-11.0233
gründe	-11.0233
▁wužitk	-11.0236
▁zběhny	-11.0238
▁wjednik	-11.0242
▁dramatisk	-11.0245
▁powuč	-11.0257
▁zwón	-11.026
▁bjesadu	-11.0261
▁Bonn	-11.0261
Wenden	-11.0262
▁Direktor	-11.0291
▁přiwšěm	-11.0291
▁skedźbnja	-11.0291
▁Material	-11.0291
▁krizy	-11.0292
▁woprawdźity	-11.0295
▁ministrant	-11.0299
▁woprawdźite	-11.031
▁Eks	-11.0314
▁Adolf	-11.035
▁časćišo	-11.035
▁Freude	-11.035
▁gefördert	-11.035
▁šulstwo	-11.035
▁domizna	-11.0351
▁Wendisch	-11.0353
▁plakat	-11.0384
▁Erziehung	-11.0408
▁Identität	-11.0408
▁evangelische	-11.0408
▁regelmäßig	-11.0408
▁gemacht	-11.0408
▁njehladajo	-11.0408
▁wustojn	-11.0408
▁Kilank	-11.0408
▁ideja	-11.0409
▁powědančko	-11.0412
▁wopřija	-11.0412
▁njeznaty	-11.0413
▁zeigt	-11.0431
▁Feliks	-11.0467
▁Schneider	-11.0467
▁katolsku	-11.0467
▁přepruwowa	-11.0467
▁słónco	-11.0467
▁kwěćel	-11.0468
▁wjetšu	-11.0468
▁samozrozumliwe	-11.0468
▁postawy	-11.0469
▁Hórčan	-11.0469
▁wójnu	-11.0469
▁Anders	-11.047
▁wudźer	-11.0471
▁nawodnistw	-11.0471
▁unterschiedlich	-11.0527
▁zběrce	-11.0527
▁wěcywustojn	-11.0527
Trjebamy	-11.0527
▁prawdźepodobn	-11.0527
▁helfen	-11.0527
▁kwalitu	-11.0527
▁hoberske	-11.0527
▁Starši	-11.0528
▁twoje	-11.0528
▁Kozel	-11.0529
▁woženi	-11.053
ffentlichkeit	-11.0577
▁Spočatnje	-11.0587
▁Struktur	-11.0587
▁prjedownikow	-11.0587
▁Hańža	-11.0587
▁darüber	-11.0587
▁tróšt	-11.0587
▁eksistency	-11.0587
▁Weclich	-11.0587
▁postajeny	-11.0587
▁nabožiny	-11.0588
▁wjesnjenjo	-11.0588
▁nalěću	-11.0589
▁Borbor	-11.059
▁informacijow	-11.059
▁łop	-11.0596
torij	-11.0598
▁žiwjensk	-11.0599
Nysa	-11.0601
▁Starej	-11.0606
▁schadźo	-11.0607
▁lajk	-11.0612
▁debjen	-11.0623
▁Jadwiga	-11.0647
▁Smjerdźečan	-11.0647
▁wólbny	-11.0647
▁kopańcu	-11.0647
▁Termin	-11.0647
▁předstawy	-11.0647
▁informuje	-11.0648
▁wójsko	-11.0648
▁gerade	-11.0649
▁akademije	-11.0649
▁čestny	-11.0658
▁kanal	-11.0662
▁reprezen	-11.0708
▁bibliograf	-11.0708
▁Wrócław	-11.0708
▁trójce	-11.0708
▁Tobias	-11.0708
▁1958	-11.0708
▁bietet	-11.0708
▁prócy	-11.0708
▁katolskeho	-11.0708
▁Pyta	-11.0714
▁zasudźi	-11.0717
franco	-11.0735
▁centra	-11.0747
▁aktuelle	-11.0754
▁Diskussion	-11.0769
▁Einwohner	-11.0769
▁Gebäude	-11.0769
▁Wrocław	-11.0769
▁London	-11.0769
▁davon	-11.0769
▁połčasu	-11.0769
▁sudnistwa	-11.0769
handlung	-11.0769
▁pěsni	-11.077
▁nawjedował	-11.0771
▁1:0	-11.0773
leitung	-11.0774
▁barok	-11.0778
rosćac	-11.0807
▁Budys	-11.0807
▁Předsydstwo	-11.083
▁Tätigkeit	-11.083
▁ehemalige	-11.083
▁spodoba	-11.083
▁techniki	-11.083
▁šefredaktor	-11.083
▁Forschung	-11.083
▁wjetša	-11.083
▁wědomostnicy	-11.083
▁njeznaći	-11.083
▁wukrajni	-11.083
▁Stajnje	-11.0833
▁kulturow	-11.0833
rozsud	-11.0835
▁dujersk	-11.0844
▁njewočakowa	-11.0844
stupajo	-11.0875
fašistisk	-11.0877
▁indiwidu	-11.0882
kreis	-11.0891
▁Awstriskej	-11.0892
▁Domašcyna	-11.0892
▁Smječkec	-11.0892
▁Wustajeńca	-11.0892
▁decembru	-11.0892
▁dyrdomdej	-11.0892
osphärenreservat	-11.0892
▁socializm	-11.0892
▁SŠT	-11.0892
▁muslim	-11.0892
▁Młónk	-11.0892
▁problematiku	-11.0892
▁rentnar	-11.0892
▁přisadźi	-11.0892
▁Grundschule	-11.0893
▁tematiku	-11.0893
▁Unternehmen	-11.0894
▁akcent	-11.0894
▁krajinje	-11.0896
▁zbožowny	-11.0896
▁Šmit	-11.0901
Sorbische	-11.0915
anća	-11.0919
▁03591/	-11.0954
▁kompromis	-11.0954
▁wuhotuja	-11.0954
▁husćišo	-11.0954
▁Nichtó	-11.0954
▁POL	-11.0954
▁Wjacor	-11.0954
▁stawiznu	-11.0954
▁kwalita	-11.0954
▁Kelko	-11.0954
▁tafli	-11.0954
▁nawječor	-11.0954
▁Třo	-11.0955
▁Wissen	-11.0955
▁turizm	-11.0955
▁swjata	-11.0956
▁zachod	-11.0957
▁pjaty	-11.0961
▁Viele	-11.0962
kónči	-11.0971
▁nawjedowac	-11.0986
▁Kóžda	-11.1016
▁niemand	-11.1016
▁wobohaći	-11.1016
▁kemšow	-11.1016
▁zwisuje	-11.1016
▁Sozial	-11.1017
▁gymna	-11.1017
▁zasadnje	-11.1017
▁lyrisk	-11.1017
▁zawěrno	-11.1017
▁Wujězd	-11.1017
▁prowinc	-11.1019
januar	-11.1029
▁knježac	-11.104
▁wabja	-11.1041
lóšt	-11.1041
film	-11.1042
▁Slepjan	-11.1046
zasudź	-11.1064
▁Slěd	-11.1078
▁bjezposrěd	-11.1079
▁Reinhard	-11.1079
▁Hannover	-11.1079
▁specieln	-11.1079
▁spěchuje	-11.1079
▁Štyri	-11.1079
▁Höhe	-11.108
▁Brief	-11.108
▁Nadźijam	-11.108
▁přeradźi	-11.1081
▁Lukaš	-11.1081
zamknj	-11.1135
ICIJA	-11.1143
▁Baćoń	-11.1143
▁Frankfurt	-11.1143
▁Jaseńcy	-11.1143
▁Potajkim	-11.1143
▁dźeržeć	-11.1143
▁wobknježi	-11.1143
▁wotmołwa	-11.1143
▁Měškank	-11.1143
▁Niedersorbisch	-11.1143
▁Norbert	-11.1143
▁Ulrich	-11.1143
▁Pflege	-11.1143
▁přiwisnik	-11.1143
▁protyki	-11.1143
▁přirodu	-11.1144
griff	-11.1145
▁rodźena	-11.1146
▁předań	-11.1146
▁synoda	-11.1148
▁wohrožene	-11.1165
ameriski	-11.1171
gesellschaft	-11.1206
▁Bertók	-11.1206
▁Budissy	-11.1206
▁Informationen	-11.1206
▁hornjołužisk	-11.1206
▁pokradny	-11.1206
▁psycholog	-11.1206
fähig	-11.1206
▁rozhłosa	-11.1207
▁Ihnen	-11.1207
▁juliju	-11.1207
▁wjeselu	-11.1208
▁period	-11.1208
▁Filip	-11.121
▁Ernst	-11.1217
bohaće	-11.1222
▁staćan	-11.1229
▁Minderheit	-11.1231
Katolsk	-11.126
▁UNO	-11.127
schließen	-11.127
uchadźišćo	-11.127
▁Donatec	-11.127
▁Kardinal	-11.127
▁fundament	-11.127
▁iniciatiwy	-11.127
▁Siegfried	-11.127
▁nachwilnje	-11.127
▁Schiller	-11.127
Zbóžn	-11.127
▁nawuknje	-11.127
▁zwěsćenj	-11.127
▁Haslow	-11.1271
▁předewzaćow	-11.1271
▁židowske	-11.1271
▁politisce	-11.1271
▁dostojnosć	-11.1272
▁zalutowa	-11.1272
▁samostatne	-11.1273
▁přišła	-11.1274
räume	-11.1274
▁wichor	-11.1275
▁sławne	-11.1279
▁Křižan	-11.1283
▁kolesowar	-11.1284
▁přirodne	-11.1285
cionalsocializm	-11.1291
▁Tracht	-11.1292
▁Jasn	-11.1331
▁demonstrowa	-11.1335
▁zamołwite	-11.1335
▁Cyrkwi	-11.1335
▁krajnoradn	-11.1335
▁Wörter	-11.1335
▁Beratung	-11.1335
▁najwjace	-11.1336
▁wěstosć	-11.1336
▁kritiske	-11.1337
▁dokonja	-11.1338
▁rjanu	-11.1339
▁skawt	-11.1339
▁kluč	-11.134
▁nalětni	-11.1355
▁ameriske	-11.1362
▁freue	-11.1396
▁zakónča	-11.14
▁Gesellschaft	-11.14
▁potwjerdźi	-11.14
europäische	-11.14
▁namrěwstw	-11.14
▁tafla	-11.14
▁Wotpowědn	-11.14
▁techniski	-11.14
▁Hantuš	-11.14
▁organizował	-11.14
▁objektiw	-11.14
▁wobćežn	-11.1401
otnětka	-11.1401
▁diktat	-11.1401
▁łopjeno	-11.1402
▁ćekny	-11.1403
▁Hosćo	-11.1403
▁spielen	-11.1403
▁hródź	-11.1406
▁přewinje	-11.1407
▁Bórk	-11.1408
▁firmowan	-11.1426
▁poetisk	-11.1426
▁FUEN	-11.1465
▁Sebastian	-11.1465
▁insgesamt	-11.1465
▁mějićel	-11.1465
▁skóržb	-11.1465
▁akwarel	-11.1465
▁připódla	-11.1465
▁tzwr	-11.1465
RTK	-11.1465
▁próstwa	-11.1465
▁Musiat	-11.1465
▁kritiku	-11.1465
▁interneće	-11.1465
▁Kajke	-11.1466
▁gilt	-11.1466
▁najwyši	-11.1466
Zetkanje	-11.1471
▁železnisk	-11.1482
▁zazběh	-11.1528
▁rjemjeslnik	-11.1531
▁hibićiw	-11.1531
▁Verfügung	-11.1531
▁hrodźišću	-11.1531
▁rozmołwn	-11.1531
▁špihel	-11.1531
▁zasydli	-11.1531
▁uniwersita	-11.1531
▁woblubowany	-11.1531
▁pomału	-11.1531
▁Pawlik	-11.1531
▁stammen	-11.1531
▁hroža	-11.1531
▁zboža	-11.1532
▁chcyć	-11.1532
▁Skala	-11.1534
▁najrjeńši	-11.1543
▁Šram	-11.156
▁Zusammenhang	-11.1597
▁atmosferu	-11.1597
▁zamołwita	-11.1597
▁dopomha	-11.1597
▁eksponat	-11.1597
Žiwjenje	-11.1597
▁bibliski	-11.1597
▁orienta	-11.1597
▁Brüssel	-11.1597
▁detail	-11.1597
▁gegründet	-11.1597
▁reformy	-11.1597
▁multi	-11.1598
▁Krieg	-11.1598
▁inženjer	-11.1599
▁öffentlich	-11.1601
▁barbn	-11.1601
▁Jawor	-11.1601
▁měšany	-11.1604
▁Dwaj	-11.1605
▁nacistisk	-11.1605
▁braucht	-11.161
▁bjezdźěłnosć	-11.1664
▁inteligency	-11.1664
▁wukrajnych	-11.1664
▁Błótow	-11.1664
▁znapřećiw	-11.1664
▁komisija	-11.1664
▁towarstwu	-11.1664
▁poziciju	-11.1664
▁Žylow	-11.1664
▁njeměli	-11.1665
▁čorno	-11.1665
▁mjenuja	-11.1665
▁přiswoji	-11.1665
▁figury	-11.1665
▁Bericht	-11.1665
▁kennen	-11.1666
hromadźe	-11.1679
▁přirjadowa	-11.1681
dobny	-11.1706
▁Milbradt	-11.1731
▁Rozhledźe	-11.1731
▁delnjołužisk	-11.1731
▁größte	-11.1731
▁wotmołwy	-11.1731
▁Šołćina	-11.1731
▁Saksow	-11.1731
▁póndźele	-11.1731
▁zastojnik	-11.1731
▁1957	-11.1731
▁błyšć	-11.1731
▁kumšt	-11.1731
▁Zamołw	-11.1731
▁1954	-11.1731
▁najwyše	-11.1731
▁heutige	-11.1731
▁zawrjenj	-11.1732
Stawizny	-11.1733
▁Namjet	-11.1733
▁Boskow	-11.1738
Holstein	-11.1743
sebjewědom	-11.1752
▁rozšěrjene	-11.1788
▁Bevölkerung	-11.1799
▁diferencow	-11.1799
▁ŁUŽICA	-11.1799
▁Referent	-11.1799
▁Städte	-11.1799
▁přinošował	-11.1799
▁přenocowa	-11.1799
▁kolegow	-11.1799
▁Gerald	-11.1799
▁prošeše	-11.1799
CSU	-11.1799
▁produkowa	-11.18
schnitt	-11.18
▁fördern	-11.1803
widźeć	-11.181
▁Wosadn	-11.1813
▁zarjadniski	-11.1817
čorny	-11.1838
▁přewostaj	-11.1842
Nima	-11.1863
▁Witkojc	-11.1867
▁Bücher	-11.1867
▁kredit	-11.1867
gebracht	-11.1867
▁njeličomn	-11.1867
Dźensniš	-11.1867
▁łopjena	-11.1867
▁Klětu	-11.1868
▁pomocnikam	-11.1872
▁Rjad	-11.1874
Maćičn	-11.1874
▁hotowa	-11.1878
▁Mudr	-11.1879
▁dujerjo	-11.1883
wotprawa	-11.189
▁Blunj	-11.1891
▁Dekanatne	-11.1935
▁Wětošow	-11.1935
▁zmóžnja	-11.1935
▁impuls	-11.1935
▁socialistiske	-11.1935
▁wólbow	-11.1935
▁Njedźiwaj	-11.1935
▁hobby	-11.1935
▁přestawki	-11.1935
▁Dźesać	-11.1935
▁modlitwa	-11.1935
▁komunistisk	-11.1935
▁Lwow	-11.195
▁prócował	-11.1969
▁horstk	-11.1972
łožena	-11.2001
▁Bedeutung	-11.2004
▁dürfen	-11.2004
▁němčinje	-11.2004
▁pozdźiše	-11.2004
▁Africe	-11.2004
▁Gabriš	-11.2004
▁dźowku	-11.2004
▁naprašnik	-11.2004
▁mjezsobu	-11.2004
▁1944	-11.2004
▁Mnohe	-11.2004
ualität	-11.2004
▁připrawi	-11.2004
▁dóńć	-11.2004
▁poboku	-11.2005
▁kulturnu	-11.2005
▁nabožina	-11.2006
▁Erfolg	-11.2014
▁Strukturwandel	-11.2073
▁patriarch	-11.2073
▁posměwk	-11.2073
▁přesłapje	-11.2073
▁Šěrachow	-11.2073
▁Bejmak	-11.2073
▁kriminal	-11.2073
▁pišćelow	-11.2073
▁Umwelt	-11.2073
▁sponsor	-11.2073
▁jězbje	-11.2074
▁kajkosć	-11.2074
▁Krawža	-11.2074
▁wuwabi	-11.2074
▁knižku	-11.2074
▁chcyli	-11.2074
▁chwata	-11.2074
▁pomjatku	-11.2074
▁přečita	-11.2074
▁paralel	-11.2074
▁dalša	-11.2074
▁wućek	-11.2074
▁Nawoda	-11.2075
▁Kubłansk	-11.2075
▁přemysłow	-11.2076
▁Wótc	-11.2076
▁Fryco	-11.2077
▁polěpšenj	-11.2084
entwicklung	-11.2143
▁Kandidat	-11.2143
▁Stuttgart	-11.2143
▁kabaret	-11.2143
▁nazhonjenje	-11.2143
▁zapokaza	-11.2143
▁Židźino	-11.2143
▁wjednistwa	-11.2143
▁bajki	-11.2144
▁zwyšenj	-11.2144
▁bilden	-11.2152
▁blak	-11.2164
▁Wotewrjen	-11.2214
▁najmłódši	-11.2214
▁předstejićer	-11.2214
▁Hochwasser	-11.2214
▁Tomasz	-11.2214
▁Skupina	-11.2214
▁tydźenju	-11.2214
▁Harald	-11.2214
▁bisherige	-11.2214
▁snadny	-11.2214
▁registrow	-11.2214
▁mudrosć	-11.2215
▁čisła	-11.2215
Histori	-11.2215
jpozdźišo	-11.2285
▁redakcija	-11.2285
▁telewiziji	-11.2285
▁ćežišćo	-11.2285
▁Čěskosłowakskej	-11.2285
▁zawjeseli	-11.2285
▁zwěrjata	-11.2285
▁komentar	-11.2285
▁někoho	-11.2285
▁sčasom	-11.2285
▁prózdninach	-11.2285
▁bjesadźe	-11.2285
▁přerězn	-11.2285
bewusst	-11.2285
▁0262	-11.2285
▁přejara	-11.2287
▁Kubaš	-11.2289
gegangen	-11.229
▁francoske	-11.2317
▁Hromadźe	-11.2356
▁Krječmar	-11.2356
▁Verantwortung	-11.2356
▁Wuslědk	-11.2356
▁zrowastanjenj	-11.2356
▁Moskwje	-11.2356
▁Richard	-11.2356
▁młodźenc	-11.2356
▁próca	-11.2356
▁sněda	-11.2356
▁Prozent	-11.2356
▁Kloster	-11.2356
▁wobdźělnikami	-11.2356
▁1953	-11.2356
widźomne	-11.2356
▁nochcyše	-11.2356
▁Sewjern	-11.2356
▁režim	-11.2357
▁Młody	-11.2357
▁Koparsk	-11.236
▁Zwjetša	-11.2428
▁projekće	-11.2428
▁zastojnicy	-11.2428
▁generaciji	-11.2428
▁njeparujomn	-11.2428
▁erfolgreich	-11.2428
▁powědančka	-11.2428
▁połojcu	-11.2428
▁Přednošk	-11.2428
▁pozasta	-11.2432
▁bolosć	-11.2432
▁chorobn	-11.2436
Hlej	-11.2495
chließlich	-11.2501
einrichtungen	-11.2501
▁Ćežk	-11.2501
▁Generation	-11.2501
▁zwotkel	-11.2501
▁posudk	-11.2501
▁čerwjene	-11.2501
▁rozestajenje	-11.2501
▁Dawidowski	-11.2501
▁Torsten	-11.2501
▁2:1	-11.2505
grenz	-11.2509
▁wobohaćen	-11.2529
▁Süd	-11.2532
dźensniš	-11.2538
Ćišinskeho	-11.2557
▁Gemeinschaft	-11.2574
▁Zollitsch	-11.2574
▁Wuznam	-11.2574
▁posedźenje	-11.2574
▁dróhu	-11.2574
▁eksistencu	-11.2574
Najwažniš	-11.2574
▁wuwoła	-11.2574
▁Wórša	-11.2574
▁Policija	-11.2574
▁folgende	-11.2576
▁Njehladaj	-11.2577
▁njepraw	-11.2595
encl	-11.2603
▁prědn	-11.2613
▁Erhalt	-11.2631
Njechorński	-11.2647
▁emocional	-11.2647
▁němčinu	-11.2647
▁Dynamo	-11.2647
▁Kamenz	-11.2647
▁Wojerowskeho	-11.2647
▁powójnske	-11.2647
▁Čłowjek	-11.2647
▁kwětki	-11.2647
▁teoreti	-11.2647
▁měještaj	-11.2647
▁Chorwat	-11.2647
▁dóńt	-11.2648
▁wětřik	-11.2648
▁Blick	-11.2648
▁schwalen	-11.2649
▁wěčnosć	-11.2651
▁wirklich	-11.2656
▁Cyłkown	-11.266
▁powětr	-11.2662
stawiznisk	-11.268
▁Inhalt	-11.2701
▁korespon	-11.2721
▁Afghanistan	-11.2721
▁Alfred	-11.2721
▁WUTORU	-11.2721
▁dramaturg	-11.2721
▁stawiznopis	-11.2721
▁młódše	-11.2721
▁sobudźěło	-11.2721
▁Minakał	-11.2721
▁pomjeńši	-11.2721
▁nikoho	-11.2721
▁Kobjela	-11.2721
▁kritisce	-11.2721
▁teksće	-11.2721
▁pokazka	-11.2721
▁Wokoło	-11.2722
▁fertig	-11.2722
▁hrodu	-11.2722
▁Urban	-11.2722
▁přiwabi	-11.2723
▁Sabin	-11.2738
▁wabjenj	-11.2752
▁cisterciens	-11.2796
▁gegenüber	-11.2796
▁Bjeńš	-11.2796
▁Dučman	-11.2796
▁oficěr	-11.2796
▁vatikansk	-11.2796
▁Grojlich	-11.2796
▁Španiskej	-11.2796
▁genutzt	-11.2796
▁chudych	-11.2796
Winkler	-11.2796
fangen	-11.2802
▁šwarn	-11.2821
▁elektronisk	-11.2822
▁čorne	-11.2837
planowan	-11.285
ausschuss	-11.2871
▁GmbH	-11.2871
▁Oktober	-11.2871
▁demonstracij	-11.2871
▁katalog	-11.2871
▁wotmołwje	-11.2871
▁zwólniwosć	-11.2871
▁chłóšć	-11.2871
▁kontinent	-11.2871
▁lässt	-11.2871
▁spřistupni	-11.2871
▁pochadźeše	-11.2871
▁srjedźišća	-11.2871
▁Glauben	-11.2871
▁knižki	-11.2871
▁chiba	-11.2871
▁wünsche	-11.2871
▁Móžemy	-11.2872
▁Ćě	-11.2872
▁wotstronjenj	-11.2873
▁Baršć	-11.2875
▁Wettbewerb	-11.2947
▁tradicijow	-11.2947
▁wutrobi	-11.2947
▁Stiftungsrat	-11.2947
▁kapałki	-11.2947
▁Malešansk	-11.2947
▁pisomnje	-11.2947
▁třělwu	-11.2947
▁März	-11.2947
▁informiert	-11.2947
▁Posole	-11.2947
▁Wšitko	-11.2947
▁alarm	-11.2947
Literarn	-11.2948
▁Bosćij	-11.2949
šlesk	-11.2962
dźakowano	-11.2994
erfolg	-11.3015
▁Besonders	-11.3023
▁eksperiment	-11.3023
▁Vorbereitung	-11.3023
▁kriterij	-11.3023
▁magacin	-11.3023
▁wobsteješe	-11.3023
▁žadosć	-11.3023
▁strašne	-11.3023
▁płuwa	-11.3028
▁Feld	-11.303
▁ponowjenj	-11.3038
Narodn	-11.3071
▁dokónč	-11.3099
▁lyrika	-11.31
▁próstwy	-11.31
▁Energie	-11.31
▁Radibor	-11.31
▁hustodosć	-11.31
▁žohnuj	-11.31
▁islam	-11.31
▁Rownom	-11.31
▁hoberski	-11.31
dźijomnje	-11.31
▁poprawn	-11.3101
▁wobsadźene	-11.3103
Jednota	-11.3105
▁Jiř	-11.3106
▁Haushalt	-11.3108
▁žadn	-11.3119
▁Zusammen	-11.3177
▁Bernadet	-11.3178
▁Zuwendung	-11.3178
▁atmosfera	-11.3178
▁biblioteka	-11.3178
▁kóždolětnje	-11.3178
▁täglich	-11.3178
▁zusätzlich	-11.3178
▁žłobik	-11.3178
▁Swjedźeń	-11.3178
▁DDR	-11.3178
▁Friedemann	-11.3178
▁Rjenč	-11.3178
global	-11.3178
▁wudospołni	-11.3178
▁Srjedu	-11.3178
▁wuslědźi	-11.3178
▁pismje	-11.3178
▁Hinak	-11.3178
▁Najsker	-11.3181
▁nabožno	-11.3181
▁Judit	-11.3181
▁błud	-11.3187
molowan	-11.3193
▁Bitte	-11.3215
literar	-11.3239
▁gmejnow	-11.3256
▁njesebičn	-11.3256
▁njezbožu	-11.3256
▁pruwować	-11.3256
▁hłuboki	-11.3256
▁słabosć	-11.3256
▁Hermaš	-11.3256
▁Feuer	-11.3256
▁derjeměće	-11.3256
▁modlitwu	-11.3256
▁potrjebu	-11.3256
▁bohatstwo	-11.3256
▁lońši	-11.3256
▁historikar	-11.3256
▁skromny	-11.3256
▁kritizuj	-11.3256
▁Kajki	-11.3257
▁spušći	-11.3259
▁sylnosć	-11.3263
▁Heinz	-11.3266
▁francoski	-11.3266
▁Herausforderung	-11.3334
▁Młodostni	-11.3334
▁Nutzung	-11.3334
▁Sprigade	-11.3334
▁Universität	-11.3334
▁niedersorbische	-11.3334
▁sydlišćo	-11.3334
▁lodohokej	-11.3334
▁přichilnosć	-11.3334
▁wobhospodar	-11.3334
▁Schramm	-11.3334
▁wobhladować	-11.3334
▁fenomen	-11.3334
würdig	-11.3334
▁mólby	-11.3334
▁čehož	-11.3335
▁martrar	-11.3335
▁wobradźi	-11.3335
zhotowjenj	-11.3339
▁inwestowa	-11.3339
▁wobličo	-11.3345
▁zakitowan	-11.3345
straße	-11.3381
▁sydlišća	-11.3414
▁wočiwidnje	-11.3414
▁dochody	-11.3414
▁hrónčko	-11.3414
▁dźesatk	-11.3415
▁kapitan	-11.3415
▁płaćen	-11.3415
▁přiwobroći	-11.3416
▁Rück	-11.3424
▁Njewěm	-11.3425
▁Wuchod	-11.347
▁Wojerows	-11.3483
Krabat	-11.3491
ELU	-11.3494
▁Mjezynarodne	-11.3494
▁POKIW	-11.3494
▁Wysokej	-11.3494
▁cyklus	-11.3494
▁inscenaciju	-11.3494
gefähr	-11.3494
▁Bischof	-11.3494
▁Dachverband	-11.3494
▁bydlenju	-11.3494
▁kapałka	-11.3494
▁Wšelak	-11.3494
▁Namaka	-11.3495
fahrt	-11.3496
▁geplant	-11.3496
▁reformow	-11.3498
▁sekund	-11.3502
▁Welche	-11.3503
▁Pfarr	-11.3533
▁holan	-11.3538
▁letzte	-11.3547
zentrum	-11.357
▁Aktivitäten	-11.3574
▁Künstler	-11.3574
▁SRJED	-11.3574
▁cyrkwjach	-11.3574
▁hrodźišćo	-11.3574
▁podpěry	-11.3574
▁profesional	-11.3574
▁paradiz	-11.3574
▁najsylniš	-11.3575
ährend	-11.3575
▁erneut	-11.3575
▁bajkow	-11.3575
▁Pferd	-11.3578
▁Chróšćan	-11.3625
▁Smochčanski	-11.3656
▁Verbindung	-11.3656
▁inscenacije	-11.3656
▁njewužiwa	-11.3656
▁persönlich	-11.3656
▁rekwiem	-11.3656
▁Ledźbor	-11.3656
▁jednohłósnje	-11.3656
▁generaciju	-11.3656
▁wobrubjen	-11.3656
▁komputer	-11.3656
▁widźeli	-11.3656
▁sekcija	-11.3656
▁židowski	-11.3656
▁Nabožn	-11.3656
▁Duchown	-11.3657
▁Swjedźensk	-11.3657
▁Moraw	-11.3669
teologisk	-11.3727
▁Jendźelskej	-11.3738
▁płaćeše	-11.3738
▁republice	-11.3738
▁wobkedźbuje	-11.3738
▁wuzběhuje	-11.3738
▁Feuerwehr	-11.3738
▁Frencel	-11.3738
▁Ingrid	-11.3738
▁Antrag	-11.3738
▁Trěbn	-11.3738
▁potrjeby	-11.3738
▁protyku	-11.3738
▁Schritt	-11.3739
clav	-11.3739
▁Lužic	-11.374
▁Erzieher	-11.3743
▁wopuš	-11.3771
Předstajenje	-11.3793
▁Bewohner	-11.382
▁Organisation	-11.382
▁olympisk	-11.382
▁zakótwj	-11.382
▁njeporadźi	-11.382
▁pěstowarnjach	-11.382
▁besucht	-11.382
▁Satzung	-11.3821
konkurenc	-11.3821
▁kašćik	-11.3821
▁ekspert	-11.3821
▁kompletn	-11.3821
▁dynami	-11.3821
▁předwidźi	-11.3822
▁kanon	-11.3863
▁naležn	-11.3887
▁Hospodar	-11.3904
▁Königswartha	-11.3904
▁ebenfalls	-11.3904
▁kołowokoło	-11.3904
infrastruktur	-11.3904
koordinator	-11.3904
▁powjetši	-11.3904
▁poskićuje	-11.3904
▁žanoho	-11.3904
▁Pólska	-11.3904
▁hotowy	-11.3905
▁samostatny	-11.3905
▁hätte	-11.3906
▁Wuměn	-11.3906
▁kritiski	-11.3911
öffentlichen	-11.3912
▁historische	-11.3913
zběhowa	-11.3947
▁kilometr	-11.3949
▁Bernhard	-11.3988
▁Smjerdźacej	-11.3988
▁Soldaten	-11.3988
▁posmjertny	-11.3988
▁nawróće	-11.3988
▁pěseń	-11.3988
▁pianist	-11.3988
▁gesagt	-11.3988
▁srjedy	-11.3988
▁pozicije	-11.3988
▁standard	-11.3988
▁dobroćel	-11.399
▁solidarn	-11.3992
material	-11.3993
▁tačel	-11.3994
čłowjek	-11.3996
▁Wobydlerjo	-11.4072
▁entwickeln	-11.4072
▁profesioneln	-11.4072
▁Vorhaben	-11.4072
▁nihdźe	-11.4072
▁tydźenjow	-11.4072
▁domizniske	-11.4072
▁Šołty	-11.4072
▁Auftrag	-11.4073
▁rozestajeć	-11.4073
▁dochodow	-11.4073
▁kapital	-11.4073
▁General	-11.4073
▁złožowa	-11.4075
▁Wuhlad	-11.4085
▁Evangeli	-11.4158
▁Personal	-11.4158
▁Sorabistik	-11.4158
▁prjedownicy	-11.4158
▁potłóčowan	-11.4158
MkWj	-11.4158
▁kapałku	-11.4158
▁slěborn	-11.4158
▁Münch	-11.4158
▁Poršic	-11.4158
▁wunjese	-11.4158
▁Bětnar	-11.4158
▁młodosć	-11.4159
▁masiwn	-11.4159
▁wudźeržowa	-11.4161
▁gesamte	-11.4162
▁Stück	-11.4196
jbóle	-11.4239
▁Glück	-11.4244
njesprócniw	-11.4244
▁pokročuje	-11.4244
▁poslednju	-11.4244
▁twórbje	-11.4244
▁Čórlich	-11.4244
▁Blumen	-11.4244
▁sadźby	-11.4244
▁zdaloka	-11.4244
▁Zdarsa	-11.4244
▁wšelke	-11.4244
▁grjeksk	-11.4244
▁wušiknje	-11.4244
▁wutory	-11.4244
▁tarif	-11.4244
▁skót	-11.4245
▁hordosć	-11.4246
božopřeća	-11.425
gehörig	-11.4267
▁zastupowac	-11.4269
▁elektro	-11.43
▁Thiemann	-11.4331
▁Abraham	-11.4331
▁beneficn	-11.4331
▁entscheiden	-11.4331
▁Rafael	-11.4331
▁Rychtar	-11.4331
▁wěstotu	-11.4331
▁ORB	-11.4331
▁Wulff	-11.4331
▁jězbn	-11.4331
▁Jörg	-11.4331
▁awtenti	-11.4333
Rěč	-11.4346
▁Prüfung	-11.4419
▁September	-11.4419
▁Zmeškal	-11.4419
▁beschäftigt	-11.4419
▁centimetrow	-11.4419
▁erläutert	-11.4419
▁lyriki	-11.4419
▁posudźuje	-11.4419
▁präsent	-11.4419
▁hnadowne	-11.4419
▁atraktiwn	-11.4419
▁Brüder	-11.4419
▁hornčer	-11.4419
▁Měšćansk	-11.442
▁postajene	-11.442
▁třělc	-11.443
▁Dźakowan	-11.4506
▁Wokrjes	-11.4507
▁perspektiwy	-11.4507
▁přepokaza	-11.4507
▁wčerawšeho	-11.4507
▁zwólniwi	-11.4507
▁posłucha	-11.4507
▁Šěsć	-11.4507
▁modlitwy	-11.4507
▁zadźěwk	-11.4507
▁samostatnosć	-11.4507
▁wupožč	-11.4508
▁dwělomn	-11.4508
hwizda	-11.4509
▁madźarsk	-11.4513
indiwidualn	-11.4521
▁někotrym	-11.4535
▁delansk	-11.4556
pädagogische	-11.4597
▁Publikum	-11.4597
▁Putnikowanj	-11.4597
▁Superintendent	-11.4597
▁biblioteki	-11.4597
▁Dopominam	-11.4597
▁Florian	-11.4597
▁Wjacław	-11.4597
▁njedocpě	-11.4597
▁přinošuje	-11.4597
▁wokolinu	-11.4597
▁taflu	-11.4597
▁knjejstwo	-11.4597
▁prašenjom	-11.4597
▁wudyri	-11.4597
▁Prozess	-11.4597
▁bildet	-11.4597
▁redukowa	-11.4601
▁zwaži	-11.4607
mitglieder	-11.4687
▁beteiligt	-11.4687
▁delnjoserbsce	-11.4687
▁gefunden	-11.4687
▁internationale	-11.4687
▁mnóstwo	-11.4687
▁rozswětler	-11.4687
▁wotkazanjom	-11.4687
▁Swjatočn	-11.4687
▁subjektiwn	-11.4687
geordnet	-11.4687
▁pomodli	-11.4687
▁Wotmołw	-11.4687
▁Wobšěrn	-11.4687
▁psalm	-11.4687
▁Bezug	-11.4687
▁spontan	-11.4687
▁Přehlad	-11.4701
schuld	-11.4706
słowakski	-11.474
twarjeny	-11.4775
erücksichtig	-11.4778
▁Magdeburg	-11.4778
▁katastrofy	-11.4778
▁maćernorěčn	-11.4778
▁produkcije	-11.4778
▁wuzwolenj	-11.4778
▁Łušćanski	-11.4778
▁přiwuznym	-11.4778
▁prócowanjow	-11.4778
▁počesćenj	-11.4778
▁pismowstwo	-11.4778
▁Sowjetske	-11.4778
▁idejow	-11.4778
▁chěžkar	-11.4778
▁Leistung	-11.4779
▁wupjelnj	-11.478
Štóž	-11.4797
▁Dyrbi	-11.4834
▁interessant	-11.4869
▁Baumgärtel	-11.4869
▁Stephan	-11.4869
▁Wótčenaš	-11.4869
▁kombinacij	-11.4869
▁prěnjotnje	-11.4869
▁wutrobny	-11.4869
▁wućahny	-11.4869
▁zbóžnoprajenje	-11.4869
▁erarbeitet	-11.4869
▁nóž	-11.4869
▁wobskorž	-11.4869
▁Wuběr	-11.4869
▁Lourdes	-11.4869
Nalěćo	-11.487
▁estetisk	-11.4878
▁Jeničk	-11.488
fabrik	-11.4887
▁temperatur	-11.4962
▁Europäische	-11.4962
▁Initiative	-11.4962
▁Wawrik	-11.4962
▁größer	-11.4962
„	-11.7566
<	-11.8629
